[PAD]
”
“
’
—
…
镓
‑
铟
锗
銲
氩
闩
钽
钕
坩
埚
鎵
焓
‘
篦
–
銦
铌
釆
##∈
铋
鎢
碲
镧
閂
钇
嚙
砜
铈
∈
∑
铪
箅
鉭
鉸
钌
锶
铒
軛
铱
‐
轂
鈷
酞
蒽
羰
`
ξ
鉬
铍
芴
啁
铯
烴
钐
鋯
镱
肼
輥
幵
鎓
铷
醌
鉿
ⅵ
##㎜
氬
¾
铑
氘
ζ
¯
钪
镝
##∑
釕
铼
巯
銨
镦
钆
辋
銻
镨
∏
鈮
铥
―
铕
檩
揿
鋇
釔
鉍
[UNK]
[CLS]
[SEP]
[MASK]
<S>
<T>
!
"
#
$
%
&
'
(
)
*
+
,
-
.
/
0
1
2
3
4
5
6
7
8
9
:
;
<
=
>
?
@
[
\
]
^
_
a
b
c
d
e
f
g
h
i
j
k
l
m
n
o
p
q
r
s
t
u
v
w
x
y
z
{
|
}
~
£
¤
¥
§
©
«
®
°
±
²
³
µ
·
¹
º
»
¼
×
ß
æ
÷
ø
đ
ŋ
ɔ
ə
ɡ
ʰ
ˇ
ˈ
ˊ
ˋ
ˍ
ː
˙
˚
ˢ
α
β
γ
δ
ε
η
θ
ι
κ
λ
μ
ν
ο
π
ρ
ς
σ
τ
υ
φ
χ
ψ
ω
а
б
в
г
д
е
ж
з
и
к
л
м
н
о
п
р
с
т
у
ф
х
ц
ч
ш
ы
ь
я
і
ا
ب
ة
ت
د
ر
س
ع
ل
م
ن
ه
و
ي
۩
ก
ง
น
ม
ย
ร
อ
า
เ
๑
་
ღ
ᄀ
ᄁ
ᄂ
ᄃ
ᄅ
ᄆ
ᄇ
ᄈ
ᄉ
ᄋ
ᄌ
ᄎ
ᄏ
ᄐ
ᄑ
ᄒ
ᅡ
ᅢ
ᅣ
ᅥ
ᅦ
ᅧ
ᅨ
ᅩ
ᅪ
ᅬ
ᅭ
ᅮ
ᅯ
ᅲ
ᅳ
ᅴ
ᅵ
ᆨ
ᆫ
ᆯ
ᆷ
ᆸ
ᆺ
ᆻ
ᆼ
ᗜ
ᵃ
ᵉ
ᵍ
ᵏ
ᵐ
ᵒ
ᵘ
‖
„
†
•
‥
‧
铽
‰
′
″
‹
›
※
‿
⁄
ⁱ
⁺
ⁿ
₁
₂
₃
₄
€
℃
№
™
ⅰ
ⅱ
ⅲ
ⅳ
ⅴ
←
↑
→
↓
↔
↗
↘
⇒
∀
−
∕
∙
√
∞
∟
∠
∣
∥
∩
∮
∶
∼
∽
≈
≒
≡
≤
≥
≦
≧
≪
≫
⊙
⋅
⋈
⋯
⌒
①
②
③
④
⑤
⑥
⑦
⑧
⑨
⑩
⑴
⑵
⑶
⑷
⑸
⒈
⒉
⒊
⒋
ⓒ
ⓔ
ⓘ
─
━
│
┃
┅
┆
┊
┌
└
├
┣
═
║
╚
╞
╠
╭
╮
╯
╰
╱
╳
▂
▃
▅
▇
█
▉
▋
▌
▍
▎
■
□
▪
▫
▬
▲
△
▶
►
▼
▽
◆
◇
○
◎
●
◕
◠
◢
◤
☀
★
☆
☕
☞
☺
☼
♀
♂
♠
♡
♣
♥
♦
♪
♫
♬
✈
✔
✕
✖
✦
✨
✪
✰
✿
❀
❤
➜
➤
⦿
、
。
〃
々
〇
〈
〉
《
》
「
」
『
』
【
】
〓
〔
〕
〖
〗
〜
〝
〞
ぁ
あ
ぃ
い
う
ぇ
え
お
か
き
く
け
こ
さ
し
す
せ
そ
た
ち
っ
つ
て
と
な
に
ぬ
ね
の
は
ひ
ふ
へ
ほ
ま
み
む
め
も
ゃ
や
ゅ
ゆ
ょ
よ
ら
り
る
れ
ろ
わ
を
ん
゜
ゝ
ァ
ア
ィ
イ
ゥ
ウ
ェ
エ
ォ
オ
カ
キ
ク
ケ
コ
サ
シ
ス
セ
ソ
タ
チ
ッ
ツ
テ
ト
ナ
ニ
ヌ
ネ
ノ
ハ
ヒ
フ
ヘ
ホ
マ
ミ
ム
メ
モ
ャ
ヤ
ュ
ユ
ョ
ヨ
ラ
リ
ル
レ
ロ
ワ
ヲ
ン
ヶ
・
ー
ヽ
ㄅ
ㄆ
ㄇ
ㄉ
ㄋ
ㄌ
ㄍ
ㄎ
ㄏ
ㄒ
ㄚ
ㄛ
ㄞ
ㄟ
ㄢ
ㄤ
ㄥ
ㄧ
ㄨ
ㆍ
㈦
㊣
㎡
㗎
一
丁
七
万
丈
三
上
下
不
与
丐
丑
专
且
丕
世
丘
丙
业
丛
东
丝
丞
丟
両
丢
两
严
並
丧
丨
个
丫
中
丰
串
临
丶
丸
丹
为
主
丼
丽
举
丿
乂
乃
久
么
义
之
乌
乍
乎
乏
乐
乒
乓
乔
乖
乗
乘
乙
乜
九
乞
也
习
乡
书
乩
买
乱
乳
乾
亀
亂
了
予
争
事
二
于
亏
云
互
五
井
亘
亙
亚
些
亜
亞
亟
亡
亢
交
亥
亦
产
亨
亩
享
京
亭
亮
亲
亳
亵
人
亿
什
仁
仃
仄
仅
仆
仇
今
介
仍
从
仏
仑
仓
仔
仕
他
仗
付
仙
仝
仞
仟
代
令
以
仨
仪
们
仮
仰
仲
件
价
任
份
仿
企
伉
伊
伍
伎
伏
伐
休
伕
众
优
伙
会
伝
伞
伟
传
伢
伤
伦
伪
伫
伯
估
伴
伶
伸
伺
似
伽
佃
但
佇
佈
位
低
住
佐
佑
体
佔
何
佗
佘
余
佚
佛
作
佝
佞
佟
你
佢
佣
佤
佥
佩
佬
佯
佰
佳
併
佶
佻
佼
使
侃
侄
來
侈
例
侍
侏
侑
侖
侗
供
依
侠
価
侣
侥
侦
侧
侨
侬
侮
侯
侵
侶
侷
便
係
促
俄
俊
俎
俏
俐
俑
俗
俘
俚
保
俞
俟
俠
信
俨
俩
俪
俬
俭
修
俯
俱
俳
俸
俺
俾
倆
倉
個
倌
倍
倏
們
倒
倔
倖
倘
候
倚
倜
借
倡
値
倦
倩
倪
倫
倬
倭
倶
债
值
倾
偃
假
偈
偉
偌
偎
偏
偕
做
停
健
側
偵
偶
偷
偻
偽
偿
傀
傅
傍
傑
傘
備
傚
傢
傣
傥
储
傩
催
傭
傲
傳
債
傷
傻
傾
僅
働
像
僑
僕
僖
僚
僥
僧
僭
僮
僱
僵
價
僻
儀
儂
億
儆
儉
儋
儒
儕
儘
償
儡
優
儲
儷
儼
儿
兀
允
元
兄
充
兆
兇
先
光
克
兌
免
児
兑
兒
兔
兖
党
兜
兢
入
內
全
兩
八
公
六
兮
兰
共
兲
关
兴
兵
其
具
典
兹
养
兼
兽
冀
内
円
冇
冈
冉
冊
册
再
冏
冒
冕
冗
写
军
农
冠
冢
冤
冥
冨
冪
冬
冯
冰
冲
决
况
冶
冷
冻
冼
冽
冾
净
凄
准
凇
凈
凉
凋
凌
凍
减
凑
凛
凜
凝
几
凡
凤
処
凪
凭
凯
凰
凱
凳
凶
凸
凹
出
击
函
凿
刀
刁
刃
分
切
刈
刊
刍
刎
刑
划
列
刘
则
刚
创
初
删
判
別
刨
利
刪
别
刮
到
制
刷
券
刹
刺
刻
刽
剁
剂
剃
則
剉
削
剋
剌
前
剎
剐
剑
剔
剖
剛
剜
剝
剣
剤
剥
剧
剩
剪
副
割
創
剷
剽
剿
劃
劇
劈
劉
劊
劍
劏
劑
力
劝
办
功
加
务
劣
动
助
努
劫
劭
励
劲
劳
労
劵
効
劾
势
勁
勃
勇
勉
勋
勐
勒
動
勖
勘
務
勛
勝
勞
募
勢
勤
勧
勳
勵
勸
勺
勻
勾
勿
匀
包
匆
匈
匍
匐
匕
化
北
匙
匝
匠
匡
匣
匪
匮
匯
匱
匹
区
医
匾
匿
區
十
千
卅
升
午
卉
半
卍
华
协
卑
卒
卓
協
单
卖
南
単
博
卜
卞
卟
占
卡
卢
卤
卦
卧
卫
卮
卯
印
危
即
却
卵
卷
卸
卻
卿
厂
厄
厅
历
厉
压
厌
厕
厘
厚
厝
原
厢
厥
厦
厨
厩
厭
厮
厲
厳
去
县
叁
参
參
又
叉
及
友
双
反
収
发
叔
取
受
变
叙
叛
叟
叠
叡
叢
口
古
句
另
叨
叩
只
叫
召
叭
叮
可
台
叱
史
右
叵
叶
号
司
叹
叻
叼
叽
吁
吃
各
吆
合
吉
吊
吋
同
名
后
吏
吐
向
吒
吓
吕
吖
吗
君
吝
吞
吟
吠
吡
否
吧
吨
吩
含
听
吭
吮
启
吱
吳
吴
吵
吶
吸
吹
吻
吼
吽
吾
呀
呂
呃
呆
呈
告
呋
呎
呐
呓
呕
呗
员
呛
呜
呢
呤
呦
周
呱
呲
味
呵
呷
呸
呻
呼
命
咀
咁
咂
咄
咆
咋
和
咎
咏
咐
咒
咔
咕
咖
咗
咘
咙
咚
咛
咣
咤
咦
咧
咨
咩
咪
咫
咬
咭
咯
咱
咲
咳
咸
咻
咽
咿
哀
品
哂
哄
哆
哇
哈
哉
哋
哌
响
哎
哏
哐
哑
哒
哔
哗
哟
員
哥
哦
哧
哨
哩
哪
哭
哮
哲
哺
哼
哽
唁
唄
唆
唇
唉
唏
唐
唑
唔
唠
唤
唧
唬
售
唯
唰
唱
唳
唷
唸
唾
啃
啄
商
啉
啊
問
啓
啕
啖
啜
啞
啟
啡
啤
啥
啦
啧
啪
啫
啬
啮
啰
啱
啲
啵
啶
啷
啸
啻
啼
啾
喀
喂
喃
善
喆
喇
喉
喊
喋
喎
喏
喔
喘
喙
喚
喜
喝
喟
喧
喪
喫
喬
單
喰
喱
喲
喳
喵
営
喷
喹
喺
喻
喽
嗅
嗆
嗇
嗎
嗑
嗒
嗓
嗔
嗖
嗚
嗜
嗝
嗟
嗡
嗣
嗤
嗦
嗨
嗪
嗬
嗯
嗰
嗲
嗳
嗶
嗷
嗽
嘀
嘅
嘆
嘈
嘉
嘌
嘍
嘎
嘔
嘖
嘗
嘘
嘚
嘛
嘜
嘞
嘟
嘢
嘣
嘤
嘧
嘩
嘭
嘮
嘯
嘰
嘱
嘲
嘴
嘶
嘸
嘹
嘻
嘿
噁
噌
噎
噓
噔
噗
噙
噜
噠
噢
噤
器
噩
噪
噬
噱
噴
噶
噸
噹
噻
噼
嚀
嚇
嚎
嚏
嚐
嚓
嚕
嚟
嚣
嚥
嚨
嚮
嚴
嚷
嚼
囂
囉
囊
囍
囑
囔
囗
囚
四
囝
回
囟
因
囡
团
団
囤
囧
囪
囫
园
困
囱
囲
図
围
囹
固
国
图
囿
圃
圄
圆
圈
國
圍
圏
園
圓
圖
團
圜
土
圣
圧
在
圩
圭
地
圳
场
圻
圾
址
坂
均
坊
坍
坎
坏
坐
坑
块
坚
坛
坝
坞
坟
坠
坡
坤
坦
坨
坪
坯
坳
坵
坷
垂
垃
垄
型
垒
垚
垛
垠
垢
垣
垦
垩
垫
垭
垮
垵
埂
埃
埋
城
埔
埕
埗
域
埠
埤
埵
執
埸
培
基
埼
堀
堂
堃
堅
堆
堇
堑
堕
堙
堡
堤
堪
堯
堰
報
場
堵
堺
堿
塊
塌
塑
塔
塗
塘
塚
塞
塢
塩
填
塬
塭
塵
塾
墀
境
墅
墉
墊
墒
墓
増
墘
墙
墜
增
墟
墨
墩
墮
墳
墻
墾
壁
壅
壆
壇
壊
壑
壓
壕
壘
壞
壟
壢
壤
壩
士
壬
壮
壯
声
売
壳
壶
壹
壺
壽
处
备
変
复
夏
夔
夕
外
夙
多
夜
够
夠
夢
夥
大
天
太
夫
夭
央
夯
失
头
夷
夸
夹
夺
夾
奂
奄
奇
奈
奉
奋
奎
奏
奐
契
奔
奕
奖
套
奘
奚
奠
奢
奥
奧
奪
奬
奮
女
奴
奶
奸
她
好
如
妃
妄
妆
妇
妈
妊
妍
妒
妓
妖
妘
妙
妝
妞
妣
妤
妥
妨
妩
妪
妮
妲
妳
妹
妻
妾
姆
姉
姊
始
姍
姐
姑
姒
姓
委
姗
姚
姜
姝
姣
姥
姦
姨
姪
姫
姬
姹
姻
姿
威
娃
娄
娅
娆
娇
娉
娑
娓
娘
娛
娜
娟
娠
娣
娥
娩
娱
娲
娴
娶
娼
婀
婁
婆
婉
婊
婕
婚
婢
婦
婧
婪
婭
婴
婵
婶
婷
婺
婿
媒
媚
媛
媞
媧
媲
媳
媽
媾
嫁
嫂
嫉
嫌
嫑
嫔
嫖
嫘
嫚
嫡
嫣
嫦
嫩
嫲
嫵
嫻
嬅
嬉
嬌
嬗
嬛
嬢
嬤
嬪
嬰
嬴
嬷
嬸
嬿
孀
孃
子
孑
孔
孕
孖
字
存
孙
孚
孛
孜
孝
孟
孢
季
孤
学
孩
孪
孫
孬
孰
孱
孳
孵
學
孺
孽
孿
宁
它
宅
宇
守
安
宋
完
宏
宓
宕
宗
官
宙
定
宛
宜
宝
实
実
宠
审
客
宣
室
宥
宦
宪
宫
宮
宰
害
宴
宵
家
宸
容
宽
宾
宿
寂
寄
寅
密
寇
富
寐
寒
寓
寛
寝
寞
察
寡
寢
寥
實
寧
寨
審
寫
寬
寮
寰
寵
寶
寸
对
寺
寻
导
対
寿
封
専
射
将
將
專
尉
尊
尋
對
導
小
少
尔
尕
尖
尘
尚
尝
尤
尧
尬
就
尴
尷
尸
尹
尺
尻
尼
尽
尾
尿
局
屁
层
屄
居
屆
屈
屉
届
屋
屌
屍
屎
屏
屐
屑
展
屜
属
屠
屡
屢
層
履
屬
屯
山
屹
屿
岀
岁
岂
岌
岐
岑
岔
岖
岗
岘
岙
岚
岛
岡
岩
岫
岬
岭
岱
岳
岷
岸
峇
峋
峒
峙
峡
峤
峥
峦
峨
峪
峭
峯
峰
峴
島
峻
峽
崁
崂
崆
崇
崎
崑
崔
崖
崗
崙
崛
崧
崩
崭
崴
崽
嵇
嵊
嵋
嵌
嵐
嵘
嵩
嵬
嵯
嶂
嶄
嶇
嶋
嶙
嶺
嶼
嶽
巅
巍
巒
巔
巖
川
州
巡
巢
工
左
巧
巨
巩
巫
差
己
已
巳
巴
巷
巻
巽
巾
巿
币
市
布
帅
帆
师
希
帐
帑
帕
帖
帘
帚
帛
帜
帝
帥
带
帧
師
席
帮
帯
帰
帳
帶
帷
常
帼
帽
幀
幂
幄
幅
幌
幔
幕
幟
幡
幢
幣
幫
干
平
年
并
幸
幹
幺
幻
幼
幽
幾
广
庁
広
庄
庆
庇
床
序
庐
库
应
底
庖
店
庙
庚
府
庞
废
庠
度
座
庫
庭
庵
庶
康
庸
庹
庾
廁
廂
廃
廈
廉
廊
廓
廖
廚
廝
廟
廠
廢
廣
廬
廳
延
廷
建
廿
开
弁
异
弃
弄
弈
弊
弋
式
弑
弒
弓
弔
引
弗
弘
弛
弟
张
弥
弦
弧
弩
弭
弯
弱
張
強
弹
强
弼
弾
彅
彆
彈
彌
彎
归
当
录
彗
彙
彝
形
彤
彥
彦
彧
彩
彪
彫
彬
彭
彰
影
彷
役
彻
彼
彿
往
征
径
待
徇
很
徉
徊
律
後
徐
徑
徒
従
徕
得
徘
徙
徜
從
徠
御
徨
復
循
徬
微
徳
徴
徵
德
徹
徼
徽
心
必
忆
忌
忍
忏
忐
忑
忒
忖
志
忘
忙
応
忠
忡
忤
忧
忪
快
忱
念
忻
忽
忿
怀
态
怂
怅
怆
怎
怏
怒
怔
怕
怖
怙
怜
思
怠
怡
急
怦
性
怨
怪
怯
怵
总
怼
恁
恃
恆
恋
恍
恐
恒
恕
恙
恚
恢
恣
恤
恥
恨
恩
恪
恫
恬
恭
息
恰
恳
恵
恶
恸
恺
恻
恼
恿
悄
悅
悉
悌
悍
悔
悖
悚
悟
悠
患
悦
您
悩
悪
悬
悯
悱
悲
悴
悵
悶
悸
悻
悼
悽
情
惆
惇
惊
惋
惑
惕
惘
惚
惜
惟
惠
惡
惦
惧
惨
惩
惫
惬
惭
惮
惯
惰
惱
想
惴
惶
惹
惺
愁
愆
愈
愉
愍
意
愕
愚
愛
愜
感
愣
愤
愧
愫
愷
愿
慄
慈
態
慌
慎
慑
慕
慘
慚
慟
慢
慣
慧
慨
慫
慮
慰
慳
慵
慶
慷
慾
憂
憊
憋
憎
憐
憑
憔
憚
憤
憧
憨
憩
憫
憬
憲
憶
憾
懂
懇
懈
應
懊
懋
懑
懒
懦
懲
懵
懶
懷
懸
懺
懼
懾
懿
戀
戈
戊
戌
戍
戎
戏
成
我
戒
戕
或
战
戚
戛
戟
戡
戦
截
戬
戮
戰
戲
戳
戴
戶
户
戸
戻
戾
房
所
扁
扇
扈
扉
手
才
扎
扑
扒
打
扔
払
托
扛
扣
扦
执
扩
扪
扫
扬
扭
扮
扯
扰
扱
扳
扶
批
扼
找
承
技
抄
抉
把
抑
抒
抓
投
抖
抗
折
抚
抛
抜
択
抟
抠
抡
抢
护
报
抨
披
抬
抱
抵
抹
押
抽
抿
拂
拄
担
拆
拇
拈
拉
拋
拌
拍
拎
拐
拒
拓
拔
拖
拗
拘
拙
拚
招
拜
拟
拡
拢
拣
拥
拦
拧
拨
择
括
拭
拮
拯
拱
拳
拴
拷
拼
拽
拾
拿
持
挂
指
挈
按
挎
挑
挖
挙
挚
挛
挝
挞
挟
挠
挡
挣
挤
挥
挨
挪
挫
振
挲
挹
挺
挽
挾
捂
捅
捆
捉
捋
捌
捍
捎
捏
捐
捕
捞
损
捡
换
捣
捧
捨
捩
据
捱
捲
捶
捷
捺
捻
掀
掂
掃
掇
授
掉
掌
掏
掐
排
掖
掘
掙
掛
掠
採
探
掣
接
控
推
掩
措
掬
掰
掲
掳
掴
掷
掸
掺
揀
揃
揄
揆
揉
揍
描
提
插
揖
揚
換
握
揣
揩
揪
揭
揮
援
揶
揸
揹
揽
搀
搁
搂
搅
損
搏
搐
搓
搔
搖
搗
搜
搞
搡
搪
搬
搭
搵
搶
携
搽
摀
摁
摄
摆
摇
摈
摊
摒
摔
摘
摞
摟
摧
摩
摯
摳
摸
摹
摺
摻
撂
撃
撅
撇
撈
撐
撑
撒
撓
撕
撚
撞
撤
撥
撩
撫
撬
播
撮
撰
撲
撵
撷
撸
撻
撼
撿
擀
擁
擂
擄
擅
擇
擊
擋
操
擎
擒
擔
擘
據
擞
擠
擡
擢
擦
擬
擰
擱
擲
擴
擷
擺
擼
擾
攀
攏
攒
攔
攘
攙
攜
攝
攞
攢
攣
攤
攥
攪
攫
攬
支
收
攸
改
攻
放
政
故
效
敌
敍
敎
敏
救
敕
敖
敗
敘
教
敛
敝
敞
敢
散
敦
敬
数
敲
整
敵
敷
數
斂
斃
文
斋
斌
斎
斐
斑
斓
斗
料
斛
斜
斟
斡
斤
斥
斧
斩
斫
斬
断
斯
新
斷
方
於
施
旁
旃
旅
旋
旌
旎
族
旖
旗
无
既
日
旦
旧
旨
早
旬
旭
旮
旱
时
旷
旺
旻
昀
昂
昆
昇
昉
昊
昌
明
昏
易
昔
昕
昙
星
映
春
昧
昨
昭
是
昱
昴
昵
昶
昼
显
晁
時
晃
晉
晋
晌
晏
晒
晓
晔
晕
晖
晗
晚
晝
晞
晟
晤
晦
晨
晩
普
景
晰
晴
晶
晷
智
晾
暂
暄
暇
暈
暉
暌
暐
暑
暖
暗
暝
暢
暧
暨
暫
暮
暱
暴
暸
暹
曄
曆
曇
曉
曖
曙
曜
曝
曠
曦
曬
曰
曲
曳
更
書
曹
曼
曾
替
最
會
月
有
朋
服
朐
朔
朕
朗
望
朝
期
朦
朧
木
未
末
本
札
朮
术
朱
朴
朵
机
朽
杀
杂
权
杆
杈
杉
李
杏
材
村
杓
杖
杜
杞
束
杠
条
来
杨
杭
杯
杰
東
杳
杵
杷
杼
松
板
极
构
枇
枉
枋
析
枕
林
枚
果
枝
枢
枣
枪
枫
枭
枯
枰
枱
枳
架
枷
枸
柄
柏
某
柑
柒
染
柔
柘
柚
柜
柞
柠
柢
查
柩
柬
柯
柱
柳
柴
柵
査
柿
栀
栃
栄
栅
标
栈
栉
栋
栎
栏
树
栓
栖
栗
校
栩
株
样
核
根
格
栽
栾
桀
桁
桂
桃
桅
框
案
桉
桌
桎
桐
桑
桓
桔
桜
桠
桡
桢
档
桥
桦
桧
桨
桩
桶
桿
梁
梅
梆
梏
梓
梗
條
梟
梢
梦
梧
梨
梭
梯
械
梳
梵
梶
检
棂
棄
棉
棋
棍
棒
棕
棗
棘
棚
棟
棠
棣
棧
森
棱
棲
棵
棹
棺
椁
椅
椋
植
椎
椒
検
椪
椭
椰
椹
椽
椿
楂
楊
楓
楔
楚
楝
楞
楠
楣
楨
楫
業
楮
極
楷
楸
楹
楼
楽
概
榄
榆
榈
榉
榔
榕
榖
榛
榜
榨
榫
榭
榮
榱
榴
榷
榻
槁
槃
構
槌
槍
槎
槐
槓
様
槛
槟
槤
槭
槲
槳
槻
槽
槿
樁
樂
樊
樑
樓
標
樞
樟
模
樣
権
横
樫
樯
樱
樵
樸
樹
樺
樽
樾
橄
橇
橋
橐
橘
橙
機
橡
橢
橫
橱
橹
橼
檀
檄
檎
檐
檔
檗
檜
檢
檬
檯
檳
檸
檻
櫃
櫚
櫛
櫥
櫸
櫻
欄
權
欒
欖
欠
次
欢
欣
欧
欲
欸
欺
欽
款
歆
歇
歉
歌
歎
歐
歓
歙
歛
歡
止
正
此
步
武
歧
歩
歪
歯
歲
歳
歴
歷
歸
歹
死
歼
殁
殃
殆
殇
殉
殊
残
殒
殓
殖
殘
殞
殡
殤
殭
殯
殲
殴
段
殷
殺
殼
殿
毀
毁
毂
毅
毆
毋
母
毎
每
毒
毓
比
毕
毗
毘
毙
毛
毡
毫
毯
毽
氈
氏
氐
民
氓
气
氖
気
氙
氛
氟
氡
氢
氣
氤
氦
氧
氨
氪
氫
氮
氯
氰
氲
水
氷
永
氹
氾
汀
汁
求
汆
汇
汉
汎
汐
汕
汗
汙
汛
汝
汞
江
池
污
汤
汨
汩
汪
汰
汲
汴
汶
汹
決
汽
汾
沁
沂
沃
沅
沈
沉
沌
沏
沐
沒
沓
沖
沙
沛
沟
没
沢
沣
沥
沦
沧
沪
沫
沭
沮
沱
河
沸
油
治
沼
沽
沾
沿
況
泄
泉
泊
泌
泓
法
泗
泛
泞
泠
泡
波
泣
泥
注
泪
泫
泮
泯
泰
泱
泳
泵
泷
泸
泻
泼
泽
泾
洁
洄
洋
洒
洗
洙
洛
洞
津
洩
洪
洮
洱
洲
洵
洶
洸
洹
活
洼
洽
派
流
浃
浄
浅
浆
浇
浊
测
济
浏
浑
浒
浓
浔
浙
浚
浜
浣
浦
浩
浪
浬
浮
浯
浴
海
浸
涂
涅
涇
消
涉
涌
涎
涓
涔
涕
涙
涛
涝
涞
涟
涠
涡
涣
涤
润
涧
涨
涩
涪
涮
涯
液
涵
涸
涼
涿
淀
淄
淅
淆
淇
淋
淌
淑
淒
淖
淘
淙
淚
淞
淡
淤
淦
淨
淩
淪
淫
淬
淮
深
淳
淵
混
淹
淺
添
淼
清
済
渉
渊
渋
渍
渎
渐
渔
渗
渙
渚
減
渝
渠
渡
渣
渤
渥
渦
温
測
渭
港
渲
渴
游
渺
渾
湃
湄
湊
湍
湖
湘
湛
湟
湧
湫
湮
湯
湳
湾
湿
満
溃
溅
溉
溏
源
準
溜
溝
溟
溢
溥
溧
溪
溫
溯
溱
溴
溶
溺
溼
滁
滂
滄
滅
滇
滋
滌
滑
滓
滔
滕
滙
滚
滝
滞
滟
满
滢
滤
滥
滦
滨
滩
滬
滯
滲
滴
滷
滸
滾
滿
漁
漂
漆
漉
漏
漓
演
漕
漠
漢
漣
漩
漪
漫
漬
漯
漱
漲
漳
漸
漾
漿
潆
潇
潋
潍
潑
潔
潘
潛
潜
潞
潟
潢
潤
潦
潧
潭
潮
潰
潴
潸
潺
潼
澀
澄
澆
澈
澍
澎
澗
澜
澡
澤
澧
澱
澳
澹
激
濁
濂
濃
濑
濒
濕
濘
濛
濟
濠
濡
濤
濫
濬
濮
濯
濱
濺
濾
瀅
瀆
瀉
瀋
瀏
瀑
瀕
瀘
瀚
瀛
瀝
瀞
瀟
瀧
瀨
瀬
瀰
瀾
灌
灏
灑
灘
灝
灞
灣
火
灬
灭
灯
灰
灵
灶
灸
灼
災
灾
灿
炀
炁
炅
炉
炊
炎
炒
炔
炕
炖
炙
炜
炫
炬
炭
炮
炯
炳
炷
炸
点
為
炼
炽
烁
烂
烃
烈
烊
烏
烘
烙
烛
烟
烤
烦
烧
烨
烩
烫
烬
热
烯
烷
烹
烽
焉
焊
焕
焖
焗
焘
焙
焚
焜
無
焦
焯
焰
焱
然
焼
煅
煉
煊
煌
煎
煒
煖
煙
煜
煞
煤
煥
煦
照
煨
煩
煮
煲
煸
煽
熄
熊
熏
熒
熔
熙
熟
熠
熨
熬
熱
熵
熹
熾
燁
燃
燄
燈
燉
燊
燎
燒
燔
燕
燙
燜
營
燥
燦
燧
燭
燮
燴
燻
燼
燿
爆
爍
爐
爛
爪
爬
爭
爰
爱
爲
爵
父
爷
爸
爹
爺
爻
爽
爾
牆
片
版
牌
牍
牒
牙
牛
牝
牟
牠
牡
牢
牦
牧
物
牯
牲
牴
牵
特
牺
牽
犀
犁
犄
犊
犍
犒
犢
犧
犬
犯
状
犷
犸
犹
狀
狂
狄
狈
狎
狐
狒
狗
狙
狞
狠
狡
狩
独
狭
狮
狰
狱
狸
狹
狼
狽
猎
猕
猖
猗
猙
猛
猜
猝
猥
猩
猪
猫
猬
献
猴
猶
猷
猾
猿
獄
獅
獎
獐
獒
獗
獠
獣
獨
獭
獰
獲
獵
獷
獸
獺
獻
獼
獾
玄
率
玉
王
玑
玖
玛
玟
玠
玥
玩
玫
玮
环
现
玲
玳
玷
玺
玻
珀
珂
珅
珈
珉
珊
珍
珏
珐
珑
珙
珞
珠
珣
珥
珩
珪
班
珮
珲
珺
現
球
琅
理
琇
琉
琊
琍
琏
琐
琛
琢
琥
琦
琨
琪
琬
琮
琰
琲
琳
琴
琵
琶
琺
琼
瑀
瑁
瑄
瑋
瑕
瑗
瑙
瑚
瑛
瑜
瑞
瑟
瑠
瑣
瑤
瑩
瑪
瑯
瑰
瑶
瑾
璀
璁
璃
璇
璉
璋
璎
璐
璜
璞
璟
璧
璨
環
璽
璿
瓊
瓏
瓒
瓜
瓢
瓣
瓤
瓦
瓮
瓯
瓴
瓶
瓷
甄
甌
甕
甘
甙
甚
甜
生
產
産
甥
甦
用
甩
甫
甬
甭
甯
田
由
甲
申
电
男
甸
町
画
甾
畀
畅
界
畏
畑
畔
留
畜
畝
畢
略
畦
番
畫
異
畲
畳
畴
當
畸
畹
畿
疆
疇
疊
疏
疑
疔
疖
疗
疙
疚
疝
疟
疡
疣
疤
疥
疫
疮
疯
疱
疲
疳
疵
疸
疹
疼
疽
疾
痂
病
症
痈
痉
痊
痍
痒
痔
痕
痘
痙
痛
痞
痠
痢
痣
痤
痧
痨
痪
痫
痰
痱
痴
痹
痺
痼
痿
瘀
瘁
瘋
瘍
瘓
瘘
瘙
瘟
瘠
瘡
瘢
瘤
瘦
瘧
瘩
瘪
瘫
瘴
瘸
瘾
療
癇
癌
癒
癖
癜
癞
癡
癢
癣
癥
癫
癬
癮
癱
癲
癸
発
登
發
白
百
皂
的
皆
皇
皈
皋
皎
皑
皓
皖
皙
皚
皮
皰
皱
皴
皺
皿
盂
盃
盅
盆
盈
益
盎
盏
盐
监
盒
盔
盖
盗
盘
盛
盜
盞
盟
盡
監
盤
盥
盧
盪
目
盯
盱
盲
直
相
盹
盼
盾
省
眈
眉
看
県
眙
眞
真
眠
眦
眨
眩
眯
眶
眷
眸
眺
眼
眾
着
睁
睇
睏
睐
睑
睛
睜
睞
睡
睢
督
睥
睦
睨
睪
睫
睬
睹
睽
睾
睿
瞄
瞅
瞇
瞋
瞌
瞎
瞑
瞒
瞓
瞞
瞟
瞠
瞥
瞧
瞩
瞪
瞬
瞭
瞰
瞳
瞻
瞼
瞿
矇
矍
矗
矚
矛
矜
矢
矣
知
矩
矫
短
矮
矯
石
矶
矽
矾
矿
码
砂
砌
砍
砒
研
砖
砗
砚
砝
砣
砥
砧
砭
砰
砲
破
砷
砸
砺
砼
砾
础
硅
硐
硒
硕
硝
硫
硬
确
硯
硼
碁
碇
碉
碌
碍
碎
碑
碓
碗
碘
碚
碛
碟
碣
碧
碩
碰
碱
碳
碴
確
碼
碾
磁
磅
磊
磋
磐
磕
磚
磡
磨
磬
磯
磲
磷
磺
礁
礎
礙
礡
礦
礪
礫
礴
示
礼
社
祀
祁
祂
祇
祈
祉
祎
祐
祕
祖
祗
祚
祛
祜
祝
神
祟
祠
祢
祥
票
祭
祯
祷
祸
祺
祿
禀
禁
禄
禅
禍
禎
福
禛
禦
禧
禪
禮
禱
禹
禺
离
禽
禾
禿
秀
私
秃
秆
秉
秋
种
科
秒
秘
租
秣
秤
秦
秧
秩
秭
积
称
秸
移
秽
稀
稅
程
稍
税
稔
稗
稚
稜
稞
稟
稠
稣
種
稱
稲
稳
稷
稹
稻
稼
稽
稿
穀
穂
穆
穌
積
穎
穗
穢
穩
穫
穴
究
穷
穹
空
穿
突
窃
窄
窈
窍
窑
窒
窓
窕
窖
窗
窘
窜
窝
窟
窠
窥
窦
窨
窩
窪
窮
窯
窺
窿
竄
竅
竇
竊
立
竖
站
竜
竞
竟
章
竣
童
竭
端
競
竹
竺
竽
竿
笃
笆
笈
笋
笏
笑
笔
笙
笛
笞
笠
符
笨
第
笹
笺
笼
筆
等
筊
筋
筍
筏
筐
筑
筒
答
策
筛
筝
筠
筱
筲
筵
筷
筹
签
简
箇
箋
箍
箏
箐
箔
箕
算
箝
管
箩
箫
箭
箱
箴
箸
節
篁
範
篆
篇
築
篑
篓
篙
篝
篠
篡
篤
篩
篪
篮
篱
篷
簇
簌
簍
簡
簦
簧
簪
簫
簷
簸
簽
簾
簿
籁
籃
籌
籍
籐
籟
籠
籤
籬
籮
籲
米
类
籼
籽
粄
粉
粑
粒
粕
粗
粘
粟
粤
粥
粧
粪
粮
粱
粲
粳
粵
粹
粼
粽
精
粿
糅
糊
糍
糕
糖
糗
糙
糜
糞
糟
糠
糧
糬
糯
糰
糸
系
糾
紀
紂
約
紅
紉
紊
紋
納
紐
紓
純
紗
紘
紙
級
紛
紜
素
紡
索
紧
紫
紮
累
細
紳
紹
紺
終
絃
組
絆
経
結
絕
絞
絡
絢
給
絨
絮
統
絲
絳
絵
絶
絹
綁
綏
綑
經
継
続
綜
綠
綢
綦
綫
綬
維
綱
網
綴
綵
綸
綺
綻
綽
綾
綿
緊
緋
総
緑
緒
緘
線
緝
緞
締
緣
編
緩
緬
緯
練
緹
緻
縁
縄
縈
縛
縝
縣
縫
縮
縱
縴
縷
總
績
繁
繃
繆
繇
繋
織
繕
繚
繞
繡
繩
繪
繫
繭
繳
繹
繼
繽
纂
續
纍
纏
纓
纔
纖
纜
纠
红
纣
纤
约
级
纨
纪
纫
纬
纭
纯
纰
纱
纲
纳
纵
纶
纷
纸
纹
纺
纽
纾
线
绀
练
组
绅
细
织
终
绊
绍
绎
经
绑
绒
结
绔
绕
绘
给
绚
绛
络
绝
绞
统
绡
绢
绣
绥
绦
继
绩
绪
绫
续
绮
绯
绰
绳
维
绵
绶
绷
绸
绻
综
绽
绾
绿
缀
缄
缅
缆
缇
缈
缉
缎
缓
缔
缕
编
缘
缙
缚
缜
缝
缠
缢
缤
缥
缨
缩
缪
缭
缮
缰
缱
缴
缸
缺
缽
罂
罄
罌
罐
网
罔
罕
罗
罚
罡
罢
罩
罪
置
罰
署
罵
罷
罹
羁
羅
羈
羊
羌
美
羔
羚
羞
羟
羡
羣
群
羥
羧
羨
義
羯
羲
羸
羹
羽
羿
翁
翅
翊
翌
翎
習
翔
翘
翟
翠
翡
翦
翩
翰
翱
翳
翹
翻
翼
耀
老
考
耄
者
耆
耋
而
耍
耐
耒
耕
耗
耘
耙
耦
耨
耳
耶
耷
耸
耻
耽
耿
聂
聆
聊
聋
职
聒
联
聖
聘
聚
聞
聪
聯
聰
聲
聳
聴
聶
職
聽
聾
聿
肃
肄
肅
肆
肇
肉
肋
肌
肏
肓
肖
肘
肚
肛
肝
肠
股
肢
肤
肥
肩
肪
肮
肯
肱
育
肴
肺
肽
肾
肿
胀
胁
胃
胄
胆
背
胍
胎
胖
胚
胛
胜
胝
胞
胡
胤
胥
胧
胫
胭
胯
胰
胱
胳
胴
胶
胸
胺
能
脂
脅
脆
脇
脈
脉
脊
脍
脏
脐
脑
脓
脖
脘
脚
脛
脣
脩
脫
脯
脱
脲
脳
脸
脹
脾
腆
腈
腊
腋
腌
腎
腐
腑
腓
腔
腕
腥
腦
腩
腫
腭
腮
腰
腱
腳
腴
腸
腹
腺
腻
腼
腾
腿
膀
膈
膊
膏
膑
膘
膚
膛
膜
膝
膠
膦
膨
膩
膳
膺
膻
膽
膾
膿
臀
臂
臃
臆
臉
臊
臍
臓
臘
臟
臣
臥
臧
臨
自
臬
臭
至
致
臺
臻
臼
臾
舀
舂
舅
舆
與
興
舉
舊
舌
舍
舎
舐
舒
舔
舖
舗
舛
舜
舞
舟
航
舫
般
舰
舱
舵
舶
舷
舸
船
舺
舾
艇
艋
艘
艙
艦
艮
良
艰
艱
色
艳
艷
艹
艺
艾
节
芃
芈
芊
芋
芍
芎
芒
芙
芜
芝
芡
芥
芦
芩
芪
芫
芬
芭
芮
芯
花
芳
芷
芸
芹
芻
芽
芾
苁
苄
苇
苋
苍
苏
苑
苒
苓
苔
苕
苗
苛
苜
苞
苟
苡
苣
若
苦
苫
苯
英
苷
苹
苻
茁
茂
范
茄
茅
茉
茎
茏
茗
茜
茧
茨
茫
茬
茭
茯
茱
茲
茴
茵
茶
茸
茹
茼
荀
荃
荆
草
荊
荏
荐
荒
荔
荖
荘
荚
荞
荟
荠
荡
荣
荤
荥
荧
荨
荪
荫
药
荳
荷
荸
荻
荼
荽
莅
莆
莉
莊
莎
莒
莓
莖
莘
莞
莠
莢
莧
莪
莫
莱
莲
莴
获
莹
莺
莽
莿
菀
菁
菅
菇
菈
菊
菌
菏
菓
菖
菘
菜
菟
菠
菡
菩
華
菱
菲
菸
菽
萁
萃
萄
萊
萋
萌
萍
萎
萘
萝
萤
营
萦
萧
萨
萩
萬
萱
萵
萸
萼
落
葆
葉
著
葚
葛
葡
董
葦
葩
葫
葬
葭
葯
葱
葳
葵
葷
葺
蒂
蒋
蒐
蒔
蒙
蒜
蒞
蒟
蒡
蒨
蒲
蒸
蒹
蒻
蒼
蒿
蓁
蓄
蓆
蓉
蓋
蓑
蓓
蓖
蓝
蓟
蓦
蓬
蓮
蓼
蓿
蔑
蔓
蔔
蔗
蔘
蔚
蔡
蔣
蔥
蔫
蔬
蔭
蔵
蔷
蔺
蔻
蔼
蔽
蕁
蕃
蕈
蕉
蕊
蕎
蕙
蕤
蕨
蕩
蕪
蕭
蕲
蕴
蕻
蕾
薄
薅
薇
薈
薊
薏
薑
薔
薙
薛
薦
薨
薩
薪
薬
薯
薰
薹
藉
藍
藏
藐
藓
藕
藜
藝
藤
藥
藩
藹
藻
藿
蘆
蘇
蘊
蘋
蘑
蘚
蘭
蘸
蘼
蘿
虎
虏
虐
虑
虔
處
虚
虛
虜
虞
號
虢
虧
虫
虬
虱
虹
虻
虽
虾
蚀
蚁
蚂
蚊
蚌
蚓
蚕
蚜
蚝
蚣
蚤
蚩
蚪
蚯
蚱
蚵
蛀
蛆
蛇
蛊
蛋
蛎
蛐
蛔
蛙
蛛
蛟
蛤
蛭
蛮
蛰
蛳
蛹
蛻
蛾
蜀
蜂
蜃
蜆
蜇
蜈
蜊
蜍
蜒
蜓
蜕
蜗
蜘
蜚
蜜
蜡
蜢
蜥
蜱
蜴
蜷
蜻
蜿
蝇
蝈
蝉
蝌
蝎
蝕
蝗
蝙
蝟
蝠
蝦
蝨
蝴
蝶
蝸
蝼
螂
螃
融
螞
螢
螨
螯
螳
螺
蟀
蟄
蟆
蟋
蟎
蟑
蟒
蟠
蟬
蟲
蟹
蟻
蟾
蠅
蠍
蠔
蠕
蠛
蠟
蠡
蠢
蠣
蠱
蠶
蠹
蠻
血
衄
衅
衆
行
衍
術
衔
街
衙
衛
衝
衞
衡
衢
衣
补
表
衩
衫
衬
衮
衰
衲
衷
衹
衾
衿
袁
袂
袄
袅
袈
袋
袍
袒
袖
袜
袞
袤
袪
被
袭
袱
裁
裂
装
裆
裊
裏
裔
裕
裘
裙
補
裝
裟
裡
裤
裨
裱
裳
裴
裸
裹
製
裾
褂
複
褐
褒
褓
褔
褚
褥
褪
褫
褲
褶
褻
襁
襄
襟
襠
襪
襬
襯
襲
西
要
覃
覆
覇
見
規
覓
視
覚
覦
覧
親
覬
観
覷
覺
覽
觀
见
观
规
觅
视
览
觉
觊
觎
觐
觑
角
觞
解
觥
触
觸
言
訂
計
訊
討
訓
訕
訖
託
記
訛
訝
訟
訣
訥
訪
設
許
訳
訴
訶
診
註
証
詆
詐
詔
評
詛
詞
詠
詡
詢
詣
試
詩
詫
詬
詭
詮
詰
話
該
詳
詹
詼
誅
誇
誉
誌
認
誓
誕
誘
語
誠
誡
誣
誤
誥
誦
誨
說
説
読
誰
課
誹
誼
調
諄
談
請
諏
諒
論
諗
諜
諡
諦
諧
諫
諭
諮
諱
諳
諷
諸
諺
諾
謀
謁
謂
謄
謊
謎
謐
謔
謗
謙
講
謝
謠
謨
謬
謹
謾
譁
證
譎
譏
識
譙
譚
譜
警
譬
譯
議
譲
譴
護
譽
讀
變
讓
讚
讞
计
订
认
讥
讧
讨
让
讪
讫
训
议
讯
记
讲
讳
讴
讶
讷
许
讹
论
讼
讽
设
访
诀
证
诃
评
诅
识
诈
诉
诊
诋
词
诏
译
试
诗
诘
诙
诚
诛
话
诞
诟
诠
诡
询
诣
诤
该
详
诧
诩
诫
诬
语
误
诰
诱
诲
说
诵
诶
请
诸
诺
读
诽
课
诿
谀
谁
调
谄
谅
谆
谈
谊
谋
谌
谍
谎
谏
谐
谑
谒
谓
谔
谕
谗
谘
谙
谚
谛
谜
谟
谢
谣
谤
谥
谦
谧
谨
谩
谪
谬
谭
谯
谱
谲
谴
谶
谷
豁
豆
豇
豈
豉
豊
豌
豎
豐
豔
豚
象
豢
豪
豫
豬
豹
豺
貂
貅
貌
貓
貔
貘
貝
貞
負
財
貢
貧
貨
販
貪
貫
責
貯
貰
貳
貴
貶
買
貸
費
貼
貽
貿
賀
賁
賂
賃
賄
資
賈
賊
賑
賓
賜
賞
賠
賡
賢
賣
賤
賦
質
賬
賭
賴
賺
購
賽
贅
贈
贊
贍
贏
贓
贖
贛
贝
贞
负
贡
财
责
贤
败
账
货
质
贩
贪
贫
贬
购
贮
贯
贰
贱
贲
贴
贵
贷
贸
费
贺
贻
贼
贾
贿
赁
赂
赃
资
赅
赈
赊
赋
赌
赎
赏
赐
赓
赔
赖
赘
赚
赛
赝
赞
赠
赡
赢
赣
赤
赦
赧
赫
赭
走
赳
赴
赵
赶
起
趁
超
越
趋
趕
趙
趟
趣
趨
足
趴
趵
趸
趺
趾
跃
跄
跆
跋
跌
跎
跑
跖
跚
跛
距
跟
跡
跤
跨
跩
跪
路
跳
践
跷
跹
跺
跻
踉
踊
踌
踏
踐
踝
踞
踟
踢
踩
踪
踮
踱
踴
踵
踹
蹂
蹄
蹇
蹈
蹉
蹊
蹋
蹑
蹒
蹙
蹟
蹣
蹤
蹦
蹩
蹬
蹭
蹲
蹴
蹶
蹺
蹼
蹿
躁
躇
躉
躊
躋
躍
躏
躪
身
躬
躯
躲
躺
軀
車
軋
軌
軍
軒
軟
転
軸
軼
軽
軾
較
載
輒
輓
輔
輕
輛
輝
輟
輩
輪
輯
輸
輻
輾
輿
轄
轅
轆
轉
轍
轎
轟
车
轧
轨
轩
转
轭
轮
软
轰
轲
轴
轶
轻
轼
载
轿
较
辄
辅
辆
辇
辈
辉
辊
辍
辐
辑
输
辕
辖
辗
辘
辙
辛
辜
辞
辟
辣
辦
辨
辩
辫
辭
辮
辯
辰
辱
農
边
辺
辻
込
辽
达
迁
迂
迄
迅
过
迈
迎
运
近
返
还
这
进
远
违
连
迟
迢
迤
迥
迦
迩
迪
迫
迭
述
迴
迷
迸
迹
迺
追
退
送
适
逃
逅
逆
选
逊
逍
透
逐
递
途
逕
逗
這
通
逛
逝
逞
速
造
逢
連
逮
週
進
逵
逶
逸
逻
逼
逾
遁
遂
遅
遇
遊
運
遍
過
遏
遐
遑
遒
道
達
違
遗
遙
遛
遜
遞
遠
遢
遣
遥
遨
適
遭
遮
遲
遴
遵
遶
遷
選
遺
遼
遽
避
邀
邁
邂
邃
還
邇
邈
邊
邋
邏
邑
邓
邕
邛
邝
邢
那
邦
邨
邪
邬
邮
邯
邰
邱
邳
邵
邸
邹
邺
邻
郁
郅
郊
郎
郑
郜
郝
郡
郢
郤
郦
郧
部
郫
郭
郴
郵
郷
郸
都
鄂
鄉
鄒
鄔
鄙
鄞
鄢
鄧
鄭
鄰
鄱
鄲
鄺
酉
酊
酋
酌
配
酐
酒
酗
酚
酝
酢
酣
酥
酩
酪
酬
酮
酯
酰
酱
酵
酶
酷
酸
酿
醃
醇
醉
醋
醍
醐
醒
醚
醛
醜
醞
醣
醪
醫
醬
醮
醯
醴
醺
釀
釁
采
釉
释
釋
里
重
野
量
釐
金
釗
釘
釜
針
釣
釦
釧
釵
鈀
鈉
鈍
鈎
鈔
鈕
鈞
鈣
鈦
鈪
鈴
鈺
鈾
鉀
鉄
鉅
鉉
鉑
鉗
鉚
鉛
鉤
鉴
鉻
銀
銃
銅
銑
銓
銖
銘
銜
銬
銭
銮
銳
銷
銹
鋁
鋅
鋒
鋤
鋪
鋰
鋸
鋼
錄
錐
錘
錚
錠
錢
錦
錨
錫
錮
錯
録
錳
錶
鍊
鍋
鍍
鍛
鍥
鍰
鍵
鍺
鍾
鎂
鎊
鎌
鎏
鎔
鎖
鎗
鎚
鎧
鎬
鎮
鎳
鏈
鏖
鏗
鏘
鏞
鏟
鏡
鏢
鏤
鏽
鐘
鐮
鐲
鐳
鐵
鐸
鐺
鑄
鑊
鑑
鑒
鑣
鑫
鑰
鑲
鑼
鑽
鑾
鑿
针
钉
钊
钎
钏
钒
钓
钗
钙
钛
钜
钝
钞
钟
钠
钡
钢
钣
钤
钥
钦
钧
钨
钩
钮
钯
钰
钱
钳
钴
钵
钺
钻
钼
钾
钿
铀
铁
铂
铃
铄
铅
铆
铉
铎
铐
铛
铜
铝
铠
铡
铢
铣
铤
铨
铩
铬
铭
铮
铰
铲
铵
银
铸
铺
链
铿
销
锁
锂
锄
锅
锆
锈
锉
锋
锌
锏
锐
锑
错
锚
锟
锡
锢
锣
锤
锥
锦
锭
键
锯
锰
锲
锵
锹
锺
锻
镀
镁
镂
镇
镉
镌
镍
镐
镑
镕
镖
镗
镛
镜
镣
镭
镯
镰
镳
镶
長
长
門
閃
閉
開
閎
閏
閑
閒
間
閔
閘
閡
関
閣
閥
閨
閩
閱
閲
閹
閻
閾
闆
闇
闊
闌
闍
闔
闕
闖
闘
關
闡
闢
门
闪
闫
闭
问
闯
闰
闲
间
闵
闷
闸
闹
闺
闻
闽
闾
阀
阁
阂
阅
阆
阇
阈
阉
阎
阐
阑
阔
阕
阖
阙
阚
阜
队
阡
阪
阮
阱
防
阳
阴
阵
阶
阻
阿
陀
陂
附
际
陆
陇
陈
陋
陌
降
限
陕
陛
陝
陞
陟
陡
院
陣
除
陨
险
陪
陰
陲
陳
陵
陶
陷
陸
険
陽
隅
隆
隈
隊
隋
隍
階
随
隐
隔
隕
隘
隙
際
障
隠
隣
隧
隨
險
隱
隴
隶
隸
隻
隼
隽
难
雀
雁
雄
雅
集
雇
雉
雋
雌
雍
雎
雏
雑
雒
雕
雖
雙
雛
雜
雞
離
難
雨
雪
雯
雰
雲
雳
零
雷
雹
電
雾
需
霁
霄
霆
震
霈
霉
霊
霍
霎
霏
霑
霓
霖
霜
霞
霧
霭
霰
露
霸
霹
霽
霾
靂
靄
靈
青
靓
靖
静
靚
靛
靜
非
靠
靡
面
靥
靦
革
靳
靴
靶
靼
鞅
鞋
鞍
鞏
鞑
鞘
鞠
鞣
鞦
鞭
韆
韋
韌
韓
韜
韦
韧
韩
韬
韭
音
韵
韶
韻
響
頁
頂
頃
項
順
須
頌
預
頑
頒
頓
頗
領
頜
頡
頤
頫
頭
頰
頷
頸
頹
頻
頼
顆
題
額
顎
顏
顔
願
顛
類
顧
顫
顯
顱
顴
页
顶
顷
项
顺
须
顼
顽
顾
顿
颁
颂
预
颅
领
颇
颈
颉
颊
颌
颍
颐
频
颓
颔
颖
颗
题
颚
颛
颜
额
颞
颠
颡
颢
颤
颦
颧
風
颯
颱
颳
颶
颼
飄
飆
风
飒
飓
飕
飘
飙
飚
飛
飞
食
飢
飨
飩
飪
飯
飲
飼
飽
飾
餃
餅
餉
養
餌
餐
餒
餓
餘
餚
餛
餞
餡
館
餮
餵
餾
饅
饈
饋
饌
饍
饑
饒
饕
饗
饞
饥
饨
饪
饬
饭
饮
饯
饰
饱
饲
饴
饵
饶
饷
饺
饼
饽
饿
馀
馁
馄
馅
馆
馈
馋
馍
馏
馒
馔
首
馗
香
馥
馨
馬
馭
馮
馳
馴
駁
駄
駅
駆
駐
駒
駕
駛
駝
駭
駱
駿
騁
騎
騏
験
騙
騨
騰
騷
驀
驅
驊
驍
驒
驕
驗
驚
驛
驟
驢
驥
马
驭
驮
驯
驰
驱
驳
驴
驶
驷
驸
驹
驻
驼
驾
驿
骁
骂
骄
骅
骆
骇
骈
骊
骋
验
骏
骐
骑
骗
骚
骛
骜
骞
骠
骡
骤
骥
骧
骨
骯
骰
骶
骷
骸
骼
髂
髅
髋
髏
髒
髓
體
髖
高
髦
髪
髮
髯
髻
鬃
鬆
鬍
鬓
鬚
鬟
鬢
鬣
鬥
鬧
鬱
鬼
魁
魂
魄
魅
魇
魍
魏
魔
魘
魚
魯
魷
鮑
鮨
鮪
鮭
鮮
鯉
鯊
鯖
鯛
鯨
鯰
鯽
鰍
鰓
鰭
鰲
鰻
鰾
鱈
鱉
鱔
鱗
鱷
鱸
鱼
鱿
鲁
鲈
鲍
鲑
鲛
鲜
鲟
鲢
鲤
鲨
鲫
鲱
鲲
鲶
鲷
鲸
鳃
鳄
鳅
鳌
鳍
鳕
鳖
鳗
鳝
鳞
鳥
鳩
鳳
鳴
鳶
鴉
鴕
鴛
鴦
鴨
鴻
鴿
鵑
鵜
鵝
鵡
鵬
鵰
鵲
鶘
鶩
鶯
鶴
鷗
鷲
鷹
鷺
鸚
鸞
鸟
鸠
鸡
鸢
鸣
鸥
鸦
鸨
鸪
鸭
鸯
鸳
鸵
鸽
鸾
鸿
鹂
鹃
鹄
鹅
鹈
鹉
鹊
鹌
鹏
鹑
鹕
鹘
鹜
鹞
鹤
鹦
鹧
鹫
鹭
鹰
鹳
鹵
鹹
鹼
鹽
鹿
麂
麋
麒
麓
麗
麝
麟
麥
麦
麩
麴
麵
麸
麺
麻
麼
麽
麾
黃
黄
黍
黎
黏
黑
黒
黔
默
黛
黜
黝
點
黠
黨
黯
黴
鼋
鼎
鼐
鼓
鼠
鼬
鼹
鼻
鼾
齁
齊
齋
齐
齒
齡
齢
齣
齦
齿
龄
龅
龈
龊
龋
龌
龍
龐
龔
龕
龙
龚
龛
龜
龟
︰
︱
︶
︿
﹁
﹂
﹍
﹏
﹐
﹑
﹒
﹔
﹕
﹖
﹗
﹙
﹚
﹝
﹞
﹡
﹣
！
＂
＃
＄
％
＆
＇
（
）
＊
＋
，
－
．
／
０
１
２
３
４
５
６
７
８
９
：
；
＜
＝
＞
？
＠
［
＼
］
＾
＿
｀
ａ
ｂ
ｃ
ｄ
ｅ
ｆ
ｇ
ｈ
ｉ
ｊ
ｋ
ｌ
ｍ
ｎ
ｏ
ｐ
ｑ
ｒ
ｓ
ｔ
ｕ
ｖ
ｗ
ｘ
ｙ
ｚ
｛
｜
｝
～
｡
｢
｣
､
･
ｯ
ｰ
ｲ
ｸ
ｼ
ｽ
ﾄ
ﾉ
ﾌ
ﾗ
ﾙ
ﾝ
ﾞ
ﾟ
￣
￥
👍
🔥
😂
😎
...
yam
10
釩
12
11
鑭
20
30
15
06
lofter
##s
﹪
by
16
14
18
13
24
17
芘
21
##0
22
19
25
23
com
∫
00
05
吲
##a
03
09
08
28
##2
50
01
04
##1
27
02
匚
##3
26
##e
07
##8
##5
##6
##4
##9
##7
29
⊕
40
##t
鎘
##o
##d
##i
矸
##n
app
www
the
##m
31
##c
##l
##y
##r
##g
鍶
60
http
哚
qq
##p
80
##f
google
pixnet
90
cookies
tripadvisor
ⅶ
##er
##k
35
##h
facebook
钬
苝
70
##b
of
##x
##u
45
艉
iphone
32
∪
銥
48
ip
36
in
38
镊
##w
##ing
55
ctrip
##on
##v
33
##の
to
34
钍
id
铊
it
37
windows
llc
top
99
42
39
啣
led
at
##an
41
51
52
46
49
43
53
44
##z
android
58
and
59
∂
56
vr
##か
囓
凵
47
blogthis
twitter
54
##le
鈰
ok
椐
57
75
cn
no
ios
##in
##mm
##00
萜
on
te
##℉
65
ⅷ
锷
95
ig
lv
脒
##ng
##を
##us
##に
pc
てす
──
茚
##te
85
ㄈ
88
##ed
html
ncc
wifi
email
64
blog
is
##10
##て
mail
online
##al
dvd
##ic
studio
##は
##℃
##ia
##と
line
vip
72
##q
98
##ce
##en
for
##is
##ra
##es
##j
usb
net
cp
笫
asia
锇
##cm
diy
new
镙
##お
ta
66
language
vs
apple
tw
86
web
##ne
ipad
62
you
##re
氚
68
##tion
ps
de
bt
pony
atm
釹
##¾
67
##ch
ceo
##or
go
##na
av
pro
cafe
96
pinterest
97
63
銠
##ta
more
said
乇
⑹
mp3
ㄩ
##ll
nba
jun
##20
92
tv
锪
pm
61
76
nbsp
镥
##ie
linux
##ma
cd
瓿
hd
##17
78
##ion
77
鈹
am
##th
##st
94
##se
##et
69
∧
gdp
my
鈑
81
abc
89
flash
79
one
93
堝
冂
##ck
gps
##も
##ly
web885
ⅸ
碸
91
##ge
⊥
⊿
xd
boss
isbn
锍
org
##ry
me
love
##11
ⅹ
73
##12
##ζ
##ter
##ar
71
82
##la
hotel
鏻
##ξ
pk
83
87
⑺
ie
##os
##30
##el
74
##50
seo
cpu
##ml
祼
84
may
##る
sun
tue
internet
cc
posted
youtube
##at
##ン
##man
ii
##ル
##15
abs
nt
pdf
yahoo
ago
￠
##it
news
mac
##∫
##てす
##me
##り
java
##⊕
spa
##de
##nt
hk
all
plus
la
鉺
##mb
##16
##ve
west
##da
肟
air
##い
##ps
から
##to
腙
logo
htc
php
https
fi
momo
##son
sat
##ke
##80
ebd
suv
wi
day
apk
##88
##um
mv
galaxy
wiki
or
brake
##ス
鈧
する
this
銪
mon
##こ
臵
po
##ない
javascript
life
home
june
##ss
system
髙
##ー
##０
pp
錸
world
fb
钹
br
##as
ic
ai
leonardo
safari
##60
live
free
xx
wed
win7
kiehl
##co
lg
蠖
##go
us
##∪
⑻
mm
しい
vfm
kanye
##90
釓
##id
jr
##ey
缶
rss
##sa
##ro
##am
##no
thu
fri
凖
##sh
##ki
碹
comments
name
##のて
##pe
##ine
max
曱
##﹤
uber
##mi
##ton
wordpress
office
篾
##㎝
##ment
##∘
bd
win10
##ld
##li
gmail
bb
dior
##rs
##ri
##rd
##ます
up
cad
##®
dr
して
read
##21
をお
##io
##99
url
枞
pvc
paypal
show
policy
##40
##ty
##18
with
##★
##01
txt
##´
##ba
dna
from
post
mini
ar
taiwan
john
##ga
privacy
agoda
##13
##ny
word
##24
##22
##by
##ur
##hz
銫
##ang
殻
cookie
netscape
艏
##ka
##～
##ad
house
share
note
ibm
code
hello
nike
sim
survey
鍔
釤
燐
wikia
##32
苊
∝
cbc
##tor
##kg
幷
##rt
##14
campaign
store
廻
os
##ct
##ts
##°
鋨
api
##ns
鐿
excel
##な
##ao
##ら
##し
～～
##nd
university
钷
には
淸
##70
##ya
##il
##25
pierre
ipo
⑼
∆
##23
hotels
##ian
のお
爿
years
凃
##ers
##26
high
##day
time
##ay
bug
##line
##く
##す
##be
xp
檫
yamservice
½
coco
##dy
sony
##ies
鍚
microsoft
david
people
##ha
ɑ
instagram
intel
その
##ot
iso
鋱
##va
梃
##mo
##land
xxx
man
co
ltxsw
##ation
baby
銣
##pa
##ol
丄
餽
tag
轱
##ue
msn
##31
oppo
##ト
##ca
control
##om
st
chrome
##ure
##ん
be
##き
lol
##19
した
##bo
鐠
lady
缷
##way
##から
巰
##ko
##do
##un
彀
corporation
⊗
##ni
herme
##28
ｃｐ
戽
##up
##06
ui
##ds
ppt
admin
three
します
bbc
re
∨
##48
ca
ㄑ
##35
hp
##ee
tpp
##た
##ive
××
root
##cc
##ました
##ble
##ity
adobe
park
镫
et
oled
city
##ex
##ler
##ap
china
##book
┐
view
##ice
global
##km
your
hong
##mg
out
##ms
ng
ebay
##29
menu
ubuntu
##cy
rom
##view
open
ktv
do
server
##lo
if
english
##ね
##５
##oo
磙
##02
step1
kong
club
茀
july
inc
胂
mr
hi
##net
touch
##ls
##ii
michael
lcd
##05
##33
phone
james
step2
篐
ios9
##box
dc
##２
##ley
samsung
鏑
筘
pokemon
css
##ent
##les
いいえ
##１
s8
atom
play
bmw
##said
sa
etf
ctrl
♥yoyo♥
##55
炱
擕
##66
adidas
amazon
⑽
##ber
##ner
visa
##77
##der
鉈
connectivity
##hi
firefox
扺
##∝
hr
so
style
mark
pop
ol
skip
㎝
as
##27
##ir
##61
觇
mba
##う
##ai
le
##ver
##∏
cafe2017
lte
super
缫
袢
##ron
amd
like
##☆
are
##ster
we
##sk
paul
data
international
##ft
longchamp
ssd
good
##ート
##ti
reply
##my
↓↓↓
apr
star
##ker
source
镏
js
抻
get
force
photo
##one
鏜
ⅺ
##ow
link
bbs
钭
goods
##lin
python
锕
##ip
game
##ics
##ません
blue
##●
⑾
##45
page
itunes
##03
犠
侪
┓
gt
gif
朶
##ff
##47
group
くたさい
about
bar
ganji
##nce
music
lee
not
榀
堞
##﹥
##per
an
faq
comment
##って
days
##ock
齧
##bs
垸
┏
v1
player
苎
xbox
sql
fm
f1
┗
##ah
軔
##lv
##mp
辏
melody
桄
##３
铗
﹥
銩
竪
xml
market
##au
##71
緖
##04
what
gl
##95
##age
tips
##68
book
##ting
mysql
can
苉
嚢
##ung
wonderland
watch
煆
##ction
﹤
mar
mobile
ㄣ
砻
article
##db
part
绗
party
って
唛
⑿
鈥
##07
##ore
##op
この
dj
##78
##38
塡
main
㈠
坭
##ong
art
▿
ad
砑
錾
##73
㈡
pm2
japan
縐
##08
ts
﹢
##ica
der
sm
##36
ⅻ
##wa
ct
##７
##や
##64
轫
homemesh
search
##85
##れは
##tv
##di
macbook
##９
##くたさい
service
##♥
type
った
揻
##ier
##si
##75
##います
##ok
best
##ット
goris
lock
##った
cf
皲
big
##ut
ftp
carol
##vi
１０
绉
happy
sd
##ac
薁
anti
pe
cnn
iii
礬
畚
##ラ
硌
esp
jan
tags
##98
##51
august
vol
##86
砟
##™
##fs
##れ
##sion
design
ac
##ム
press
jordan
ppp
that
key
check
##６
##tt
##㎡
摭
##lt
power
##42
##∧
##bc
vivi
##ック
he
‵
钋
jpg
##rry
锝
鋶
铳
杲
nb
##ted
##rn
しています
莰
usd
##t00
master
##ンク
釷
model
##58
al
##09
鯺
##34
ram
goo
ても
##ui
焠
楦
red
##ary
rpg
item
##pm
##41
揺
##za
project
##㎏
hot
td
blogabstract
##ger
##62
㈢
##44
gr2
##します
##ｍ
black
electronic
nfc
year
asus
また
html5
cindy
##hd
m3
镬
esc
##od
booking
##53
fed
tvb
##81
##ina
mit
﹟
##いる
chan
㎜
distribution
next
になる
peter
bios
steam
cm
屮
にも
pk10
##ix
##65
##91
dec
nasa
##ana
icecat
⒀
b1
will
##46
li
se
##ji
##み
##ard
oct
##ain
jp
##ze
##bi
cio
##56
smart
h5
##39
##port
curve
vpn
##nm
##dia
utc
##あり
鎦
##52
rmvb
chanel
a4
miss
##and
##im
media
who
##63
she
girl
亍
##⊥
vera
##して
class
vivo
king
##フ
##ei
national
ab
褙
糢
╴
┛
ipod
ap
铙
钚
鏊
ms
拑
##69
mp4
msci
##po
##89
沬
mg
index
罝
##bit
##out
##zz
##97
##67
##ˉ
apec
##８
photoshop
opec
⒁
ては
##96
##tes
##ast
##﹢
○○
##ール
撘
##ling
##よ
##ory
屛
##ical
kitty
content
##43
step3
##cn
win8
刳
vc
鏇
iphone7
robert
##した
tcl
楕
beauty
##87
en
dollars
##ys
##oc
step
pay
yy
a1
‒
##lly
##ks
##♪
龆
鍗
download
⒂
sep
exe
ph
います
school
gb
center
pr
street
##board
uv
##37
##lan
winrar
##que
##ua
##com
∴
㈣
##½
gpu
##４
ettoday
fu
tom
##54
##ren
##via
煺
##72
￡
棑
##79
##tch
rose
arm
mb
##49
##ial
##nn
nvidia
step4
mvp
錋
york
駢
##イ
how
cpi
挿
柺
gov
kg
joe
##xx
mandy
pa
##ser
copyright
fashion
鞲
don
##け
ecu
##ist
##art
erp
wap
have
##lm
talk
##ek
##ning
##if
ch
##ite
video
鞴
cs
san
iot
look
##84
呫
##ku
october
##ux
trump
##hs
##ide
box
甑
first
##ins
april
##ight
##83
旳
angel
protected
aa
缬
##ⅹ
x1
m2
##fe
##×
##ho
size
筯
min
ofo
fun
gomaji
ex
hdmi
food
dns
march
chris
kevin
##のか
##lla
##pp
##ec
ag
ems
耵
鉆
##rm
##ham
off
##92
asp
team
fandom
ed
閤
▌♥
##ell
info
されています
##82
sina
臌
聍
##able
##ctor
匸
羃
刋
dll
rights
ltd
idc
jul
殳
篏
缧
ma
surface
##76
##ク
～～～
﹛
mall
eps
馕
green
##59
map
space
donald
v2
sodu
##light
倂
迚
朊
まて
丌
reserved
htm
##han
##57
抅
倣
mod
##ise
##tions
栲
ti
##shi
doc
┘
icp
柨
wang
##ram
shopping
aug
##pi
##well
now
wam
b2
からお
##hu
锨
犛
##gb
熘
f2
##93
圬
mix
##ef
##uan
bwl
##plus
##res
core
##ess
tea
窳
hktvmall
nhk
##ate
list
##ese
呖
feb
##ⅵ
inn
ての
nov
铧
缐
daniel
##ci
pass
##bet
##nk
coffee
呑
ssl
airbnb
##ute
fbi
woshipm
skype
ea
cg
sp
##fc
##www
yes
edge
alt
芐
##94
fpga
##ght
##gs
iso9001
さい
##ile
##wood
##uo
image
lin
icon
american
##em
椤
set
says
##king
##tive
blogger
##74
なと
戗
噐
##ox
##zy
##red
##ium
##lf
nokia
claire
##リ
##ding
november
lohas
镘
##tic
##マ
##cs
##ある
##che
##ire
##gy
##ult
db
january
win
##カ
丅
road
ptt
##ま
##つ
鐡
##fa
##mer
anna
pchome
はい
udn
ef
㈤
##time
##tte
穏
##ア
g20
white
かかります
鍘
镆
garden
eleven
di
##おります
chen
蒄
鏃
茋
young
cosplay
ちてない
叚
bat
蒎
##tra
##ては
kindle
npc
steve
etc
##ern
##｜
call
xperia
ces
travel
sk
s7
##ous
沤
##int
みいたたけます
卐
edu
file
cho
qr
##car
##our
钫
##ant
##ｄ
eric
櫬
rends
##jo
##する
mastercard
≅
kb
##min
##℅
##ino
vista
##ris
##ud
jack
礅
##set
颏
pos
螫
##her
##ou
taipei
しく
蔟
beta
##ませんか
︒
##fi
express
⒃
body
##ill
aphojoy
user
december
meiki
##ick
tweet
richard
##av
##ᆫ
iphone6
##dd
ちてすか
views
##mark
锒
pd
##００
times
##▲
level
##ash
糁
point
錒
##ome
疋
koreanmall
##ak
george
q2
扥
wma
tcp
隹
スタッフ
full
mlb
##lle
##watch
tm
run
蒌
钖
smith
business
##und
硷
color
##tal
﹜
泔
##less
moon
襻
##rl
update
pcb
shop
裥
轳
little
なし
end
##mhz
van
dsp
easy
鑷
##house
##key
history
##ｏ
oh
卩
##hy
##web
oem
let
was
沲
##gg
review
##wan
搆
##°c
敫
uc
title
##val
united
炻
赀
##ons
doi
trivago
overdope
sbs
##ance
##ち
grand
special
⒄
imf
銼
垅
##so
##ーム
audi
##he
london
william
##rp
##ake
science
beach
cfa
amp
ps4
嗮
秏
##link
##hp
crm
ferragamo
bell
make
##eng
枓
under
zh
photos
㈥
##style
##ント
via
埙
da
##gi
company
i7
##ray
thomas
燬
ufo
i5
##max
plc
ben
back
research
︹
橛
mike
##pc
##ッフ
september
##￠
##ace
vps
february
℉
pantos
wp
lisa
鼢
★★
jquery
night
long
offer
##berg
##news
∅
##いて
ray
fks
wto
せます
over
墣
奌
##all
##rus
㎏
嵴
##works
blogtitle
loftpermalink
##→
戭
martin
test
ling
km
##め
逑
fda
v3
##ja
##ロ
ｗedding
かある
outlet
family
##ea
をこ
##top
story
##ness
salvatore
##lu
酫
swift
靣
room
している
oracle
##ul
稈
sam
玆
week
pi
rock
##のは
##ａ
##けと
##ean
##㎎
##gle
cctv
after
chinese
##back
powered
x2
##tan
ˉ
##nes
##イン
canon
only
⊆
##zi
##las
say
##oe
唢
##sd
胨
##bot
##world
##zo
sky
made
top100
just
楯
pmi
硏
洇
gap
##vr
褡
les
##╴
杻
ball
vogue
vi
ing
ofweek
cos
##list
##ort
漥
##なら
##lon
として
last
##tc
##of
##bus
##gen
real
eva
##コ
a3
nas
##lie
##ria
##coin
##bt
醅
his
芨
cat
nata
vive
health
⋯⋯
drive
sir
##≌
du
cup
##カー
##ook
##よう
##sy
alex
msg
tour
しました
镎
##word
鲹
ebooks
r8
block
枛
##より
汊
nice
pvp
樔
months
咢
rewards
##ther
柸
棰
##xi
##チ
##sc
micro
簰
gg
blogfp
op
蝮
daily
m1
梱
true
##bb
ml
##tar
##のお
##ky
anthony
##∷
栝
##yo
state
舢
##ara
##aa
##rc
##tz
##ston
より
gear
##eo
##ade
ge
see
┑
##win
##ura
ss
heart
##den
##ita
down
##sm
el
png
鑚
讣
rakuten
whatsapp
bay
dream
add
##use
迖
⒆
pad
gucci
mpv
##ode
##fo
island
緃
##▼
滗
jason
螟
chicago
##❤
しの
##hone
io
##れる
##ことか
sogo
be2
##ology
︺
cloud
vcd
##con
乚
##ford
##joy
##kb
##こさいます
##rade
but
##ach
docker
##ful
rfid
ul
##ase
hit
ford
##star
踫
##○
１１
a2
sdk
reading
edited
##are
cmos
##mc
觜
siri
light
##ella
##ため
bloomberg
##read
pizza
##ison
jimmy
##vm
college
node
journal
ba
摰
##play
焐
##cer
２０
magic
##yu
偱
jump
冖
tt
##ings
asr
##lia
鐀
step5
network
##cd
mc
いします
栱
pixstyleme
┻
釭
⋘
money
★★★★★
蒴
１２
┴
bl
みの
act
##tus
tokyo
##rial
##life
emba
##ae
saas
tcs
##rk
##wang
summer
##sp
ko
##ving
涷
premium
##その
netflix
##ヒ
uk
mt
##lton
right
frank
two
镲
える
##ple
##cal
緾
##んな
##sen
##ville
hold
nexus
dd
##ius
てお
##mah
##なく
tila
zero
罅
ce
##tin
resort
##ws
charles
old
p10
汚
report
宄
##ru
##には
bus
vans
lt
##est
pv
##レ
links
rebecca
##ツ
##dm
azure
镚
きな
limited
bit
趐
##mon
ㄐ
moto
##eam
鑥
亇
var
eos
なとの
┕
blogspot
された
⋐
e3
dos
dm
fc
##ments
##ik
##kw
boy
##bin
##ata
忸
er
##せ
圴
##vin
##tu
##ula
攷
##∥
station
##ろ
##ature
抺
files
zara
hdr
top10
nature
咇
magazine
s6
marriott
##シ
avira
case
##っと
tab
##ran
tony
##home
oculus
im
##ral
jean
saint
cry
胼
rosie
##force
##ini
ice
##bert
のある
##nder
##mber
pet
幛
##◆
plurk
捊
##sis
糛
哢
㶲
##ence
tim
##ω
##nc
##ても
##name
log
ips
great
ikea
malaysia
unix
##イト
椴
##ncy
##nie
揑
akb48
##ye
##oid
##￡
##chi
##いた
oa
xuehai
釺
##orm
##rf
搧
さん
##ware
##リー
﹀
ho
##pro
text
##era
亁
bob
♁
##ub
≌
疪
scp
avi
##zen
绐
mi
wu
museum
qvod
apache
lake
jcb
鋏
★★★
ni
##hr
hill
葎
ne
weibo
杄
ruby
##ーシ
##ヶ
##row
掁
鎝
iv
##ish
github
瓩
mate
镒
##スト
##lot
##ane
andrew
のハイト
##tina
t1
rf
灠
##vel
鍃
way
final
りの
ns
髁
︳
杌
##メ
sweet
bytes
##ene
揳
##ɑ
##cker
##∨
##px
椼
topapp
仳
helpapp
rs
low
砹
浠
care
芑
ldquo
あり
##fork
leave
rm
edition
##gan
##zon
##qq
##¨
##google
##ism
gold
迳
explorer
##zer
toyota
category
select
visual
##labels
restaurant
##md
posts
s1
##ico
もっと
angelababy
熰
㊉
sports
s3
mbc
壼
してくたさい
shell
x86
candy
##new
kbs
face
xl
碶
##here
##⊿
swissinfo
v8
謢
dram
##ual
##vice
釳
##wer
sport
q1
ios10
public
int
card
##ｃ
ep
au
rt
##れた
夬
bill
##mll
kim
３０
曡
wan
##uk
##ミ
x3
咝
蓍
scott
##ming
膣
e5
##3d
h7n9
worldcat
brown
##あります
##vo
##led
蛏
##ax
厶
釱
##ert
paris
##～6
polo
鉮
##lr
俓
##ナ
capital
##hing
bank
cv
鞥
##chat
##ｓ
##たい
adc
##ule
糨
##ｅ
digital
hotmail
鴗
##pad
囯
bbq
quot
##ring
before
wali
##まて
mcu
觧
蚶
という
costco
ϕ
north
裢
switch
##city
##ｐ
philips
##mann
management
panasonic
##cl
##vd
##ping
##rge
alice
##lk
##ましょう
css3
##ney
vision
alpha
##ular
拫
##tter
lz
にお
##ありません
mode
gre
俣
pci
##tm
蘖
甁
##yan
##そ
について
##let
##キ
work
war
coach
ah
mary
##ᅵ
huang
##pt
a8
pt
follow
##berry
抦
##ew
a5
ghost
##ション
##wn
##og
south
##code
girls
##rid
action
villa
git
r11
table
games
##cket
error
汔
##ag
here
##ame
##gc
qa
##■
##lis
gmp
##gin
vmalife
##cher
yu
wedding
##tis
demo
dragon
┫
soho
social
bye
##rant
river
orz
acer
裉
##↑
##ース
##ats
痩
del
##ven
⒅
ups
##ように
##ター
傌
value
macd
yougou
##dn
醱
##ano
ll
##urt
##rent
continue
script
##wen
##ect
paper
赿
锱
shift
##chel
##フト
##cat
##┐
x5
fox
┒
##さん
car
aaa
##blog
loading
##yn
##tp
kuso
┍
si
sns
イカせるテンマ
顥
rmb
vdc
forest
central
prime
help
ultra
##rmb
##ような
篜
square
##﹦
##しい
のないフロクに
##field
##reen
##ors
##ju
c1
start
篼
##air
##map
cdn
##wo
cba
stephen
m8
鉋
##get
opera
##base
##ood
vsa
com™
##aw
##ail
棓
なのて
count
t2
##ᅡ
##een
釬
hop
##gp
vsc
tree
##eg
##ose
礠
繊
##ories
##shop
alphago
v4
覘
simon
##ᆼ
⑪
zip
スホンサー
##sta
louis
cr
bas
##～10
bc
##yer
hadoop
##ube
##wi
弳
镟
hola
##low
place
centre
拪
d3
##fer
㈧
撳
##media
桟
閞
呯
exchange
釙
series
##ハー
##san
eb
##bank
##ｋ
q3
##nge
##mail
take
##lp
椄
∷
client
east
cache
event
vincent
##ールを
きを
##nse
sui
纒
adchoice
##и
##stry
##なたの
⒇
##zone
ga
apps
sea
##ab
##¯
cisco
##タ
##rner
kymco
##care
dha
##pu
##yi
minkoff
royal
p1
への
annie
葙
collection
kpi
playstation
鑪
になります
泅
bh
##bar
queen
铹
radio
┙
andy
armani
##xy
manager
iherb
##ery
##share
spring
raid
johnson
岢
##ob
volvo
hall
##ball
v6
our
taylor
##hk
bi
嵛
##cp
kate
bo
water
technology
##rie
サイトは
惻
##ona
##sl
hpv
錬
gtx
hip
rdquo
jayz
stone
##lex
##rum
namespace
##やり
尢
##ale
##atic
des
##erson
##ql
##ves
##type
enter
##この
##てきます
d2
鸮
##mix
##bian
との
a9
jj
ky
##lc
access
movie
##hc
リストに
tower
##ration
##mit
ます
##nch
ua
tel
prefix
##o2
鲆
##point
樘
ott
僞
##http
##ury
baidu
##ink
member
##logy
bigbang
nownews
##js
##shot
##tb
##こと
##ゐ
eba
##tics
##lus
ける
v5
spark
##ama
there
##ions
god
##lls
##down
hiv
##ress
burberry
day2
##kv
◆◆
jeff
related
film
edit
joseph
鼔
##ark
cx
鑞
order
g9
鐓
##ans
##tty
s5
##bee
かあります
thread
xr
buy
sh
欹
land
spotify
mx
##ari
麿
##verse
×email
sf
why
##ことて
丩
掾
nego
sunny
dom
exo
箆
葑
positioning
fit
rgb
##tton
㈨
kiss
alexa
adam
lp
みリストを
##ｇ
mp
##ties
##llow
amy
##du
np
鈸
institute
璄
##rth
##lar
怍
逹
##des
sidebar
１５
imax
site
##cky
##kit
##ime
潲
season
嗥
##fun
##ンター
##ひ
gogoro
a7
pu
lily
fire
twd600
##ッセーシを
いて
##vis
觳
##cture
##をお
information
##オ
close
friday
##くれる
yi
nick
てすか
##tta
##tel
彽
##lock
cbd
economy
鈅
かお
貲
tinker
double
捥
纕
voice
##app
oops
channel
today
觖
##right
raw
xyz
##＋
jim
edm
##cent
釡
supreme
誊
ds
##its
##asia
dropbox
##てすか
##tti
books
萡
鲵
##tle
##ller
##ken
##more
##boy
sex
莨
##dom
t3
##ider
##なります
##unch
﹦
錀
feel
紥
##かった
##put
により
s2
mo
##gh
men
ka
amoled
div
##tr
##n1
port
howard
##tags
ken
dnf
##nus
adsense
##а
ide
##へ
buff
thunder
##town
##ique
has
##body
auto
pin
##erry
tee
てした
詃
number
##the
箬
object
psp
cool
udnbkk
ㄱ
##mic
miui
##tro
most
r2
##alk
##nity
陔
扠
##いました
橈
s4
law
version
##oa
n1
sgs
docomo
##tf
##ack
henry
fc2
##ded
##sco
庋
##rite
撺
玢
linkedin
##ada
##now
wii
##ndy
ucbug
##◎
sputniknews
legalminer
##ika
##xp
锘
##bu
q10
oo
b6
come
##rman
cheese
ming
maker
##gm
nikon
##fig
ppi
kelly
##ります
jchere
てきます
ted
md
迀
fgo
tech
##tto
dan
soc
##gl
##len
hair
earth
绌
铔
img
##pper
##a1
##てきる
##ロク
acca
##ition
##ference
suite
##ig
outlook
##mond
##cation
捭
##pr
鵭
菪
枧
娙
櫈
莼
櫺
犮
airport
##over
脤
##おり
jones
##ith
lab
##su
##いるのて
co2
town
piece
##llo
no1
vmware
輳
##qi
focus
reader
##admin
##ora
tb
false
##log
筚
know
lan
簣
##ces
f4
##ume
motel
stop
##oper
na
flickr
netcomponents
##af
##─
pose
williams
local
##ound
##cg
##site
##iko
いお
鉯
垱
gsm
con
##ath
朿
friends
##hip
cell
冋
##rey
軗
cream
##cks
迠
##dp
戓
sso
蟥
shtml
song
swiss
##mw
##キンク
lumia
xdd
string
tiffany
砀
marc
られた
insee
russell
sc
dell
##ations
ｏｋ
camera
枴
##vs
##flow
##late
classic
柰
##nter
stay
g1
mtv
##㎛
##ever
##lab
##nger
qe
sata
ryan
d1
鉕
cms
##cing
su
鲳
旯
editor
舯
##nap
security
sunday
association
##ens
怛
##bra
acg
##かり
sofascore
とは
mkv
##ign
jonathan
gary
build
labels
##oto
tesla
moba
qi
gohappy
general
ajax
##ⅶ
##かる
サイト
society
##test
##urs
wps
fedora
##ich
mozilla
弪
ƒ
##dr
usa
urn
##lina
##ｒ
grace
##die
##try
##ader
挷
##なり
elle
髌
##chen
##ᆯ
price
##ten
uhz
##ough
eq
##hen
states
push
session
balance
wow
螭
##cus
##py
when
##ward
##ep
逇
wong
library
prada
##サイト
##cle
running
##ree
┬
ck
date
q4
##ctive
##ool
##＞
mk
##ira
┤
镤
die
secret
rq
dota
buffet
諯
e6
##ez
pan
鲅
ha
##card
##cha
縲
##さ
alan
day3
eye
f3
##end
france
keep
adi
rna
tvbs
##ala
solo
nova
##え
##tail
##ょう
support
##ries
##なる
##ved
base
copy
iis
fps
##ways
hero
hgih
profile
fish
mu
ssh
entertainment
chang
##wd
click
cake
##ond
pre
##tom
kic
pixel
##ov
##fl
product
鋡
##pd
dear
##gate
es
yumi
audio
##²
##sky
echo
bin
where
##ture
鐙
##ape
find
sap
isis
##なと
nand
ʃ
##load
##ream
band
a6
鎨
never
##post
festival
┈
##we
秞
guide
橾
zenfone
##ike
驽
gd
forum
jessica
strong
alexander
##ould
software
allen
##ious
program
蚰
else
lohasthree
##gar
することかてきます
please
##れます
rc
##ggle
##ric
bim
垟
##own
eclipse
喑
brian
蠋
##side
赟
煳
##other
##ける
##tech
##ator
夲
engine
##ged
##ｔ
plaza
##fit
cia
ngo
westbrook
shi
tbs
铇
##みませんか
sci
茌
reuters
##ily
contextlink
##hn
af
##cil
bridge
very
##cel
氺
cambridge
##ize
揷
##aid
##data
鍯
frm
##head
award
butler
##sun
meta
##mar
america
ps3
puma
pmid
##すか
lc
塹
kitchen
##lic
桷
きなしソフトサーヒス
そして
day1
future
★★★★
##text
##page
##rris
pm1
##ket
fans
##っています
囁
christian
bot
kids
trackback
##hai
c3
display
##hl
n2
尃
idea
さんも
##sent
airmail
##ug
##men
pwm
けます
亊
##lution
蔆
氕
awards
schemas
∵
asics
wikipedia
font
##tional
##vy
c2
刂
##れている
##dget
##ein
っている
contact
pepper
スキル
ㄓ
##～5
錪
##uel
##ument
鎰
##hang
みてす
q5
##sue
rain
##ndi
wei
swatch
##cept
わせ
樋
popular
##ste
##tag
p2
鍜
trc
鸩
##west
##live
justin
honda
ping
messenger
##rap
v9
甴
##とは
unity
appqq
はすへて
鑵
leo
##tone
##テ
##ass
uniqlo
〆
鳔
her
jane
memory
moneydj
##tical
human
ɛ
していると
##m2
coc
miacare
##mn
tmt
##core
vim
kk
##may
fan
target
use
too
鑛
釸
菝
⇔
癀
fast
##2c
services
##ope
omega
energy
##わ
pinkoi
槚
##なから
##rain
jackson
##ement
##シャンルの
櫫
磞
そんな
p9
rd
##ᆨ
尓
##tier
##vic
zone
##│
椀
殛
dl
isofix
cpa
m4
磴
kimi
めて
davis
##lay
lulu
##uck
笕
weeks
qs
##hop
菰
##ｎ
ae
##ear
搥
eia
鳊
##fly
korea
jpeg
boost
##ship
small
##リア
萮
eur
缟
﹃
valley
##iel
simple
##ude
rn
k2
##ena
されます
non
patrick
しているから
##ナー
feed
猃
骿
process
well
qqmei
##thing
they
aws
lu
pink
##ters
##kin
または
board
##vertisement
wine
##ien
unicode
##dge
r1
佷
##tant
いを
##twitter
##3c
cool1
される
##れて
##ｌ
isp
汅
standard
嗞
眵
◦
matt
##fu
镅
##iner
googlemsn
扞
##ラン
x7
鉢
##uce
メーカー
sao
##ev
##きました
##file
蜉
榧
xddd
shirt
㈩
##rio
##hat
##┘
givenchy
ya
bang
##lio
monday
crystal
ロクイン
##abc
´
head
∃
縠
##vc
##～20
##rity
cnc
锛
ipv6
null
柽
##ost
yang
imsean
tiger
##fet
##ンス
荜
##＝
dji
圉
ji
maria
##come
##んて
foundation
遄
##beth
##なった
茈
##∆
active
##aft
##don
輚
sr
摃
emma
##khz
living
嗍
鑴
##┄
э
纡
炤
sas
x6
##face
pptv
x4
##mate
han
sophie
##jing
⑫
fifa
##mand
other
sale
inwedding
##gn
てきちゃいます
##mmy
##pmlast
bad
nana
nbc
してみてくたさいね
なとはお
##wu
##かあります
##あ
note7
single
祘
せからこ
してくたさい♪この
笓
##㏒
ならワークケートへ
もみつかっちゃうかも
ワークケートの
##bel
window
##dio
##ht
union
age
蠊
１４
##ivity
##ｙ
コメント
domain
neo
##isa
##lter
疎
f5
steven
##cts
powerpoint
tft
self
g2
ft
##テル
zol
##act
mwc
鉏
ㄗ
もう
nbapop
荅
てある
eds
ace
##room
previous
author
tomtom
il
##ets
hu
financial
☆☆☆
っています
bp
鈽
chi
##ぉ
##hg
fairmont
cross
荈
gay
h2
function
##けて
衘
also
趆
炝
##ータ
##raph
镞
┎
##ils
i3
┧
avenue
##host
による
##bon
##tsu
message
navigation
ө
fintech
h6
##ことを
苧
##ject
##vas
##firm
credit
##wf
xxxx
form
##nor
##space
huawei
plan
json
sbl
##dc
machine
鏍
ㄖ
wish
梔
##sol
windows7
edward
##ために
development
washington
##nsis
lo
茛
##sio
##ym
##bor
planet
##～8
##wt
ieee
gpa
##めて
camp
ann
gm
##tw
##oka
connect
##rss
##work
##atus
wall
chicken
soul
伹
##times
fa
##ather
##cord
蔸
##eep
hitachi
gui
harry
##pan
e1
disney
##press
##ーション
wind
臷
frigidaire
##tl
liu
hsu
⑭
basic
von
ev
いた
てきる
スホンサーサイト
learning
##ull
expedia
archives
change
##wei
santa
cut
ins
琚
turbo
brand
cf1
枵
￭
return
鉼
##rip
h1
##nis
##をこ
鶫
##にお
嚝
application
しており
emc
rx
##oon
拠
quick
筨
牚
wilson
wing
chapter
##bug
beyond
##cms
##dar
##oh
zoom
e2
trip
sb
##nba
rcep
篌
aspx
ci
哕
gc
gnu
める
##count
advanced
dance
dv
##url
##ging
啳
挢
am09
shadow
battle
卣
##ｉ
##cia
##という
emily
##のてす
##tation
host
ff
techorz
sars
##mini
##mporary
##ering
nc
糓
捹
##next
cma
##mbps
##gas
##ift
##dot
##ィ
阃
##～17
amana
##りの
纈
##ros
ir
貎
##eet
##ible
##↓
鳐
ˋ▽ˊ
##aka
dcs
iq
##ｖ
l1
##lor
maggie
绲
##iu
礳
##～1
锔
##gt
桕
articles
create
##burg
##iki
database
fantasy
##rex
##cam
dlc
dean
##you
hard
path
gaming
victoria
maps
cb
##lee
##itor
庂
systems
##xt
ϑ
p3
sarah
鲎
##nan
棤
曩
x9
install
second
￮
##ann
##ph
##rcle
##nic
噛
##nar
ec
##とう
饹
metro
chocolate
##rian
湎
##table
##しています
skin
##sn
缍
mountain
##0mm
inparadise
洐
箜
ib
滘
##jia
eeworld
creative
g5
g3
肧
parker
ecfa
village
からの
搾
sylvia
サーヒス
hbl
##ques
##onsored
##x2
##きます
##v4
##tein
ie6
鏌
##stack
##♁
ver
##ads
##baby
sound
bbe
摂
##lone
##uid
ads
尙
gundam
耥
thinkpad
蜣
scrum
match
##ave
mems
蒺
##oy
##なりました
##talk
glass
lamigo
span
##eme
job
##a5
jay
wade
kde
﹠
##lace
ocean
tvg
##covery
##r3
##ners
##rea
junior
think
##aine
cover
##ision
##sia
↓↓
##bow
msi
栊
┄
菫
##love
錏
谝
soft
z2
##pl
絀
僄
mobil
mind
##uy
铖
nginx
##oi
めた
##rr
##∴
##mple
##sson
##ーシてす
憜
##nts
旣
comhd
crv3000
##uard
徧
鋳
deep
lost
field
gallery
##bia
rate
spf
redis
traction
葶
icloud
饸
なら
fe
jose
锫
##tory
into
sohu
fx
榍
砵
kicstart2
##hia
すく
##～3
##sit
ra
２４
##walk
##xure
棸
##pact
pacific
xa
natural
carlo
帄
##walker
卄
##can
cto
gigi
逋
##サー
pen
##hoo
ob
matlab
##ｂ
##yy
贋
##iti
mango
##bbs
sense
c5
oxford
##ニア
walker
jennifer
##ola
course
##bre
︵
##pus
##rder
lucky
刄
##ぁ
ivy
なお
##nia
sotheby
side
##ugh
joy
##orage
##ush
##bat
##dt
亓
r9
##2d
##gio
鐶
country
wear
##lax
##～7
##moon
ㄔ
seven
study
##⋙
訚
lonzo
绺
##ェ
evolution
##イフ
##kk
gs
kd
##レス
arduino
笊
b12
##lux
arpg
##rdon
cook
##x5
dark
five
##als
##ida
とても
sign
鳟
##ちの
something
仵
##nda
⑬
##posted
fresh
tf
舭
劢
cam
##mine
##skip
##form
##ssion
education
涑
##tee
dyson
stage
##jie
want
##night
epson
pack
あります
##ppy
テリヘル
##█
wd
##eh
##rence
left
##lvin
golden
mhz
discovery
##trix
##n2
loft
##uch
##dra
##sse
speed
轤
垓
sorry
welcome
##urn
wave
gaga
##lmer
teddy
癟
トラックハック
せよ
ㄦ
##f2016
##ƒ
rp
##sha
rar
##あなたに
##きた
##ヮ
holiday
##ュー
漰
曵
##vg
##nos
##rail
gartner
gi
鄯
##dium
kit
鎯
b3
eco
##ろう
塥
sean
##stone
autocad
nu
##np
f16
write
¨
m5
##ias
images
atp
##dk
fsm
愎
罉
ve
墯
##xxx
##のに
##cake
砏
unit
lim
ru
囷
##ification
published
angela
咅
analytics
ak
##ｑ
##nel
gmt
##icon
again
##₂
##bby
ios11
ㄙ
かこさいます
waze
いてす
##ハ
蘘
##ust
##ティー
framework
擗
iptv
delete
紆
cl
wwdc
逖
喞
##fw
##ての
邡
##xon
brandt
##ses
##dragon
tc
vetements
anne
monte
modern
official
##へて
##ere
##nne
##oud
もちろん
５０
etnews
##a2
##graphy
ℎ
ㄕ
##ちゃん
顕
##rtex
##てお
l2
##gma
mount
ccd
たと
archive
morning
tan
ddos
e7
##ホ
day4
##ウ
gis
甪
its
囬
factory
bruce
pg
##ito
ってくたさい
guest
cdma
##lling
⒌
n3
しかし
瞙
mega
eyes
ro
１３
women
dac
church
##jun
singapore
##facebook
袝
starbucks
##tos
##stin
##shine
zen
##mu
tina
顸
鲐
##たけて
钸
阬
request
##gence
qt
##っ
畄
亻
稂
q7
##zzi
diary
##tore
枘
##ead
迕
cst
##osa
canada
agent
va
##jiang
##ちは
##ーク
##lam
sg
##nix
##sday
##よって
g6
##master
bing
##zl
charlie
１６
蔴
nb40
##ーン
thai
##ルフ
韱
##itz
##2f
bonnie
##food
##lent
originals
##stro
##lts
∘
∟∣
##bscribe
children
ntd
yesstyle
##かも
hmv
##tment
d5
輞
arts
sms
##pn
##я
##いい
topios9
￢
lifestyle
virtual
##ague
xz
##deo
muji
儅
unt
##nnis
##ᅩ
faq1
蓥
橕
##ette
fly
堸
はしめまして
慼
curry
##pop
のこ
release
##←
##◆◆
##cast
ぉ
ありな
俢
##ews
莸
##stle
ios7
##ima
殚
dog
lenovo
##r4
roger
悭
cbs
vornado
姘
葸
##desk
##クok
##ald
炓
槜
榘
##van
oil
##ｘ
some
break
common
##jy
##lines
g7
twice
袛
ella
nano
belle
にこ
##mes
##self
##note
jb
##ことかてきます
benz
##との
##ova
胪
save
##wing
##ますのて
kai
りは
##hua
##rect
rainer
##unge
陉
##0m
adsl
##かな
guestname
##uma
##kins
##zu
tokichoi
##price
county
##med
##mus
rmk
麈
address
vm
えて
openload
##group
##hin
##iginal
amg
urban
##oz
jobs
emi
##public
beautiful
##sch
album
##dden
##bell
jerry
works
hostel
miller
##drive
##rmin
##１０
鐫
boot
敉
##ʹ
##fx
##cm～
隁
##nome
##ctionary
##oman
##lish
##cr
##hm
ㄠ
##how
﹋
francis
xi
c919
b5
evernote
##uc
vga
鈵
coupe
##urg
##cca
##uality
頊
薴
れる
multi
##また
##ett
em
hey
##ani
##tax
##rma
inside
than
誚
leonnhurt
##jin
ict
れた
bird
notes
亷
くの
##dical
##lli
result
戠
iu
ee
轈
smap
gopro
##last
yin
pure
鸸
炆
けた
扃
##dan
##rame
mama
##oot
bean
marketing
##hur
貭
bella
sync
xuite
##ground
榙
discuz
##getrelax
##ince
##bay
##5s
cj
##イス
gmat
apt
##pass
jing
##rix
c4
rich
##とても
niusnews
##ello
bag
蝣
##eting
##mobile
１８
culture
袼
##のてすか
廹
亠
area
##ience
钶
details
gp
universal
silver
dit
はお
private
ddd
u11
kanshu
##ified
fung
##nny
dx
腚
tai
乛
刖
##fr
##lean
撗
##pin
缼
##rin
ɵ
ly
rick
##bility
usb3
banner
##baru
##gion
metal
dt
vdf
##⑼
karl
qualcomm
bear
鹗
oldid
ian
jo
##tors
population
##ernel
盍
mmorpg
##mv
##bike
闳
##©
ww
friend
##ager
exhibition
##del
##pods
fpx
structure
##free
##tings
kl
##rley
##copyright
##mma
california
厎
orange
yoga
蛸
canmake
honey
##anda
##コメント
栘
nikkie
##ルハイト
dhl
publishing
##mall
##gnet
賸
ㄘ
##クセス
##┅
e88
陏
##dog
fishbase
##!
##"
###
##$
##%
##&
##'
##(
##)
##*
##+
##,
##-
##.
##/
##:
##;
##<
##=
##>
##?
##@
##[
##\
##]
##^
##_
##{
##|
##}
##~
##£
##¤
##¥
##§
##«
##±
##³
##µ
##·
##¹
##º
##»
##¼
##ß
##æ
##÷
##ø
##đ
##ŋ
##ɔ
##ə
##ɡ
##ʰ
##ˇ
##ˈ
##ˊ
##ˋ
##ˍ
##ː
##˙
##˚
##ˢ
##α
##β
##γ
##δ
##ε
##η
##θ
##ι
##κ
##λ
##μ
##ν
##ο
##π
##ρ
##ς
##σ
##τ
##υ
##φ
##χ
##ψ
##б
##в
##г
##д
##е
##ж
##з
##к
##л
##м
##н
##о
##п
##р
##с
##т
##у
##ф
##х
##ц
##ч
##ш
##ы
##ь
##і
##ا
##ب
##ة
##ت
##د
##ر
##س
##ع
##ل
##م
##ن
##ه
##و
##ي
##۩
##ก
##ง
##น
##ม
##ย
##ร
##อ
##า
##เ
##๑
##་
##ღ
##ᄀ
##ᄁ
##ᄂ
##ᄃ
##ᄅ
##ᄆ
##ᄇ
##ᄈ
##ᄉ
##ᄋ
##ᄌ
##ᄎ
##ᄏ
##ᄐ
##ᄑ
##ᄒ
##ᅢ
##ᅣ
##ᅥ
##ᅦ
##ᅧ
##ᅨ
##ᅪ
##ᅬ
##ᅭ
##ᅮ
##ᅯ
##ᅲ
##ᅳ
##ᅴ
##ᆷ
##ᆸ
##ᆺ
##ᆻ
##ᗜ
##ᵃ
##ᵉ
##ᵍ
##ᵏ
##ᵐ
##ᵒ
##ᵘ
##‖
##„
##†
##•
##‥
##‧
廾
##‰
##′
##″
##‹
##›
##※
##‿
##⁄
##ⁱ
##⁺
##ⁿ
##₁
##₃
##₄
##€
##№
##ⅰ
##ⅱ
##ⅲ
##ⅳ
##ⅴ
##↔
##↗
##↘
##⇒
##∀
##−
##∕
##∙
##√
##∞
##∟
##∠
##∣
##∩
##∮
##∶
##∼
##∽
##≈
##≒
##≡
##≤
##≥
##≦
##≧
##≪
##≫
##⊙
##⋅
##⋈
##⋯
##⌒
##①
##②
##③
##④
##⑤
##⑥
##⑦
##⑧
##⑨
##⑩
##⑴
##⑵
##⑶
##⑷
##⑸
##⒈
##⒉
##⒊
##⒋
##ⓒ
##ⓔ
##ⓘ
##━
##┃
##┆
##┊
##┌
##└
##├
##┣
##═
##║
##╚
##╞
##╠
##╭
##╮
##╯
##╰
##╱
##╳
##▂
##▃
##▅
##▇
##▉
##▋
##▌
##▍
##▎
##□
##▪
##▫
##▬
##△
##▶
##►
##▽
##◇
##◕
##◠
##◢
##◤
##☀
##☕
##☞
##☺
##☼
##♀
##♂
##♠
##♡
##♣
##♦
##♫
##♬
##✈
##✔
##✕
##✖
##✦
##✨
##✪
##✰
##✿
##❀
##➜
##➤
##⦿
##、
##。
##〃
##々
##〇
##〈
##〉
##《
##》
##「
##」
##『
##』
##【
##】
##〓
##〔
##〕
##〖
##〗
##〜
##〝
##〞
##ぃ
##ぇ
##ぬ
##ふ
##ほ
##む
##ゃ
##ゅ
##ゆ
##ょ
##゜
##ゝ
##ァ
##ゥ
##エ
##ォ
##ケ
##サ
##セ
##ソ
##ッ
##ニ
##ヌ
##ネ
##ノ
##ヘ
##モ
##ャ
##ヤ
##ュ
##ユ
##ョ
##ヨ
##ワ
##ヲ
##・
##ヽ
##ㄅ
##ㄆ
##ㄇ
##ㄉ
##ㄋ
##ㄌ
##ㄍ
##ㄎ
##ㄏ
##ㄒ
##ㄚ
##ㄛ
##ㄞ
##ㄟ
##ㄢ
##ㄤ
##ㄥ
##ㄧ
##ㄨ
##ㆍ
##㈦
##㊣
##㗎
疃
氳
庳
賒
繈
鈳
鎭
冑
##΄
蹍
阍
蹾
楤
藁
繰
怱
馊
胲
窂
㏒
╬
嫒
逄
阰
猡
ㄡ
臚
骝
襉
陜
稄
遘
ﬁ
聡
鹋
硖
瘰
疬
覌
砬
缛
呶
蛘
捜
茆
锃
⑮
⑰
鲀
亅
鋺
寖
窰
箘
癈
鈩
┦
脕
贗
倥
艶
迮
禳
凊
蒈
蝾
㗾
礓
硭
掼
锎
冐
囘
攺
洉
苘
蚬
庑
︻
㏑
拤
桯
妁
蛄
籿
偰
鐣
¬
瑴
迨
潻
樨
阓
牻
朣
耜
砈
扙
廍
奱
蒯
巟
櫞
帏
筈
##ʃ
嗄
眀
椟
蓣
坼
⊂
湼
啭
⑱
釟
狳
粙
┥
絛
氵
┷
埝
##㏕
醢
靭
祓
珰
莜
騾
ㄝ
酖
郃
駮
牳
##ᅱ
辎
榇
锴
〥
枨
⑯
溓
黾
碏
螵
柝
艽
筌
逬
┖
谇
鉦
抝
沔
蚍
撣
嚔
馱
ㄊ
ㄜ
鲔
鈡
逯
##щ
跗
⽤
逥
阄
壌
剰
凼
襞
鈻
镔
翕
ɸ
瞵
喿
歘
阗
扌
萛
尜
偑
鈿
鈐
啢
訐
佧
﹨
鴃
縑
鉣
․
昻
瘕
⒍
苖
##¢
昝
胿
鏠
笥
柆
矼
耩
瞉
卝
鲕
鍪
ю
柁
槅
焬
┝
氶
柤
黉
鋭
曈
狃
钲
勹
㎛
掦
縺
迆
樅
##㊉
鈄
幚
楢
勲
慥
瀦
碥
唍
廋
锸
榳
搌
щ
迊
宻
堋
聩
靘
槔
⅓
歨
苴
幨
鈇
嚅
〡
龃
﹄
菹
縳
##ˆ
缏
轗
##ⅷ
縿
鐃
粍
瞽
簟
皸
侁
筮
岿
畤
刭
蚧
溆
褴
卽
乁
筢
╋
竦
驵
驺
虰
拶
龇
庥
乀
遝
疉
庛
鳎
帢
鐒
缳
栺
慜
毐
哓
旄
饧
鉵
诜
蹀
¢
堎
恹
縦
缡
噘
蹠
##⑻
碜
嚗
##¬
擯
塻
酎
仂
笤
纟
厍
锬
##⑺
忄
貉
颥
郞
猓
滹
⋙
蜩
诮
俥
叧
雩
圪
迼
髟
鲇
縼
攄
詨
蚋
埭
礤
枒
硎
亾
##♯
旸
乊
暎
柈
㎞
锜
嗵
谵
橦
覔
儭
彊
摖
嵚
仼
膧
氽
┼
楛
滳
籰
樍
箧
爨
祌
縊
絯
崐
骺
︼
訇
壙
垌
籣
繒
鄐
濉
雂
澦
۰
綀
☉
魉
埴
ᄄ
冴
ヮ
ゎ
堠
尅
瑢
狍
宊
##э
凅
彐
笾
▕
寤
苾
礻
罟
眭
泶
┳
趄
擭
毌
##〥
菔
荑
犟
丷
𝑙
缂
韘
沆
钅
鬴
埽
▔
芗
褸
敔
滎
屣
軜
帡
幪
洌
鞯
轡
縹
鲋
眽
唎
##┼
扨
郄
痖
厐
‛
廒
蠃
⓫
踣
蓠
杅
稃
伅
墬
怳
舨
撙
蝥
秕
腘
鲡
⁓
娈
伩
刢
轵
鬲
##☓
诳
##⑹
箦
筺
笸
缒
掎
镡
禊
峁
鳢
锓
##ⅸ
佊
汳
篋
襓
塍
鵠
躥
﹌
拝
菎
伲
夂
洳
谡
絷
艿
擧
饔
怴
貍
縰
㛾
嶔
竀
鸫
鍀
銛
⇐
##￢
竒
潯
抮
隂
朲
隗
勰
肜
鳓
蕰
劼
熀
騒
尭
❾
诼
ぅ
砘
癍
缊
扽
彡
啐
栌
礞
俵
熳
峞
撖
喼
仸
摎
筧
闱
彳
裣
帙
躱
榣
肫
慒
傮
眹
圹
苤
溘
穸
遡
簋
玦
苌
豕
娤
犭
輜
韫
鈒
萉
跫
╗
磾
呔
龉
渑
齩
嗫
鑬
腟
汍
鈲
欴
篕
榞
屝
梡
歭
##ᆾ
跘
ϰ
齉
⃞
塄
竉
皞
怿
蛍
螽
坸
窀
辁
##ﬁ
蘅
蠓
㓎
贳
鏮
##ɵ
讦
铞
捽
笮
悈
穰
挳
嚦
嗀
╦
抭
瘵
##₅
掊
螅
籵
矬
淲
枏
巣
槪
苐
阋
墎
訾
疧
舥
腠
歿
罒
┉
溽
︷
粝
艨
弢
┸
隌
罘
浀
抾
庀
棈
踨
钄
阝
纥
蠂
穾
褛
ㅛ
詁
詷
仩
閭
髑
俴
簞
∗
聱
柙
诓
鲂
礸
剬
妫
齬
筣
鐾
裎
灪
銆
餈
淜
氊
侔
湩
誑
堊
擻
騵
隤
巠
砢
鰹
鐽
ɷ
鼴
晽
埰
薝
脺
臒
曺
絠
哬
腷
塴
飑
坁
陥
揵
枠
畠
倐
邴
謻
銧
糥
儇
¡
玎
斉
梛
覅
蚴
愦
诂
酆
⊇
偍
疴
趔
旡
##㎞
牷
跣
燚
蹚
蝰
埧
靑
秫
腄
樏
薮
焑
甶
硂
傈
紿
坻
埇
┯
棊
缌
冫
愠
夌
鍬
棡
咼
覈
衤
讠
ъ
坶
##⒁
詈
㎠
硪
壂
摛
孌
栟
骻
夼
宀
禤
亱
诎
箄
荓
蕀
鲭
蛲
涏
紏
壚
簏
敨
㬵
弣
罈
綣
抆
詖
繯
焭
懣
鼯
茞
囋
潠
碄
鼇
鑤
錼
紕
冱
穇
鏝
縉
↖
笪
崃
痦
嶌
澉
楲
##◦
簖
颕
拏
涭
翀
纮
坜
侓
蹓
❶
寀
凾
绠
錩
皤
蛉
耖
媏
稭
黙
掕
烜
佺
˥
潽
燠
枥
枲
捯
⁃
挻
铴
嬖
娿
缋
##ぅ
颀
昰
锩
齑
浤
槾
阺
齠
毹
熖
泂
硗
倨
锖
槺
胩
挶
##┉
僌
睉
狻
ѱ
矂
烕
摽
陴
疺
揋
卨
盁
╣
笳
抈
伋
┠
荦
揰
佂
縞
炘
衧
掄
璣
怄
羼
脽
蟓
‚
堟
垆
鼍
磥
啇
萑
鐹
殂
舻
烔
袓
煬
譆
澰
掮
錕
寙
镩
ˆ
呙
渫
搴
搰
蟮
伥
焀
攉
涫
郓
##⒃
##⒅
眝
㧽
鋈
嬈
峈
僨
搕
磔
躓
絻
檡
梜
韁
挴
魑
剸
厔
緎
銎
嫱
褽
狾
悁
ƞ
勣
酼
萞
庰
顳
㟛
砆
鉌
┇
仾
踡
腁
鼙
鈈
蠸
儎
橎
酨
##ױ
搦
鹩
洧
゛
亼
偬
儛
佲
牸
倢
吿
挒
笧
迏
⊃
赜
灮
衸
嵨
俈
廽
唋
舁
榊
飏
㎎
镪
##ᆽ
偸
❹
❺
⓬
徍
垻
燋
枎
闿
糝
淂
摶
稆
枆
瓠
骓
湝
祄
棅
贽
殄
槙
蛞
薫
闼
愰
諰
窭
诖
鬈
繸
砐
髹
穚
抪
曽
##┈
砕
𝑅
##𝑛
𝑑
𝐴
啨
𝜀
阾
攴
豳
畧
徆
㓟
刲
捼
嘬
箪
稧
箟
黟
賛
詀
爈
櫪
偛
螓
傋
嶡
洫
偣
謮
⊔
挼
ℵ
埯
牏
饣
悒
俦
姞
裼
鄄
埏
耔
芔
脞
绨
旲
丏
柀
耑
懌
儩
鄅
軏
焲
繙
楗
韃
膂
鹚
辂
鐄
酘
杩
瑭
绂
黢
嫠
幁
襖
锊
蝐
佁
齟
庒
鄝
赉
逨
铘
杪
帊
忭
溚
垾
捰
蠑
谰
浛
绱
墚
韒
煱
𝑘
踿
亄
肷
龀
梠
繄
纇
撢
诹
騤
攵
洚
玀
綰
诨
鼽
瓚
峖
鸬
枺
奰
踯
崮
鄖
蹻
踸
癹
槮
⫬
遉
櫓
瞱
鈚
櫟
鄣
隃
鴾
邞
煇
緙
淢
檥
闈
餿
##ㄐ
扚
攽
敀
唻
粜
畈
耪
鼕
淝
闶
訫
赱
孒
芣
湜
杺
徭
谹
哳
掝
攭
鍞
剞
筗
׃
秥
埒
堍
觃
簔
ゐ
葍
酲
浕
杋
钔
溦
缯
噭
栕
柋
廸
鉱
榎
眧
禇
樻
焏
垡
掻
徃
矻
鉾
轾
沷
甏
❷
❸
⓭
掯
蕗
潵
澭
侼
鲣
絟
厧
翈
荲
棬
咵
墑
烀
潁
哙
##⊆
嫫
楜
毖
觋
韪
岣
瑧
囵
踅
槱
搠
橥
鳙
麇
躅
泘
熇
鉓
埀
慔
擖
胣
璩
簀
鉽
衒
螎
呒
ל
嗾
瑱
湔
讵
眄
⅔
磽
卬
脎
滪
祔
籴
捈
⽚
璈
恽
犘
藪
##˝
鄹
妶
擃
衯
碤
榦
洎
￩
磠
┡
旪
镃
撛
㡌
⌀
蹆
濆
鼗
鏀
┰
萆
艄
舳
斢
杣
槠
焾
溞
萹
儐
鏷
﷽
捸
砠
鋌
秈
鏧
鉧
苳
瘼
誋
紼
聵
橿
叒
勭
抯
⒏
搿
酡
⌊
⌋
癶
僳
妗
褰
旙
搮
棫
頔
耱
嚄
噞
戔
嘽
櫊
汏
闬
穈
缃
胘
##∅
肭
辔
鸲
孥
剡
⒑
鯤
蛑
仉
舴
錖
鞫
##ℎ
𝑓
𝑟
彺
鑌
浼
旒
辶
渌
鄋
昅
禸
齲
峊
闋
瞗
悀
萲
伓
茪
伂
珗
驪
迗
ϒ
洃
藷
攩
禲
笱
鵪
荾
脗
##ㄊ
錍
茖
骒
鈁
嶀
诐
觼
唪
ℓ
轔
繣
盬
ħ
醳
鍩
讖
銡
垙
綘
咈
##٠
拃
彔
觴
蜁
炟
筴
寪
瘂
崦
荇
尪
娚
伱
籭
俶
妡
跅
嘙
蓊
岜
峆
硙
玹
踺
刓
汱
闗
贠
荛
捿
##⊗
摥
泿
朩
歺
##∊
戉
ﾓ
##┴
尥
鞕
溷
⾟
弰
ѵ
膸
鲼
‱
槰
臶
栴
鞂
峄
冃
耭
畐
閗
骢
倄
璠
涱
⌈
⌉
戋
訽
稙
暜
辬
偖
袮
槇
鶪
宬
镢
窬
鲠
榤
姴
粛
偲
誔
岥
漼
鍳
螚
##ℓ
揎
惂
瑷
##ᅫ
❻
❽
❼
❿
宑
鳀
唿
飮
柶
鏂
肸
瘅
攮
溋
堔
艟
絎
柣
鍠
俅
笩
鲥
粆
蟫
匏
昡
恊
崟
壸
舣
嶕
洏
鋘
焥
噵
摡
╟
楬
咷
繴
樠
兿
譹
佮
烠
戯
劂
勯
鈛
##ﬂ
朘
蝓
◊
℅
侭
ϵ
澶
⽕
裰
鏸
琿
宂
糈
邉
眏
陻
瘗
餍
伧
阼
槊
䁔
庢
橓
屙
眇
嵫
溲
##╗
纋
✚
擫
梹
芰
櫉
螬
荕
砱
蟝
茺
逦
鴷
鲴
瘥
腧
辚
噫
苈
痗
趑
丬
欗
鎶
檚
顪
鏨
鉊
昃
衱
鑯
侅
郏
涗
玼
筎
炵
齞
穜
¶
鋞
槆
扏
萻
缲
漭
畾
蓐
##ħ
##ⅻ
髎
骀
鍈
巛
丆
桤
鐐
枃
蛱
咴
䓛
蚨
撉
坫
椱
埪
螱
渏
鍻
賿
晙
墦
摙
劀
傎
霤
樛
斿
╲
褁
阒
桪
┚
妅
玴
柦
泩
柃
蠼
蜾
鬮
葜
埻
鯡
喾
喁
壠
嚯
屇
淠
蔌
𝛼
ϱ
簕
瘣
鞄
堥
╥
髐
憿
踰
彖
擐
蚢
馦
曚
鰱
綉
謅
黷
⑲
曮
蚺
礒
弮
磏
蓴
縯
韝
戥
ㄷ
閶
鐖
榾
湞
踔
蛦
撱
郥
逤
橺
##ㄓ
撜
閬
##㈠
唲
晥
韙
筪
籅
缁
芟
镄
繅
藺
惢
誗
硊
悕
剀
邐
鋧
垥
悤
迓
聝
籖
劻
鉒
紁
鑺
袘
咠
弍
鉞
穖
閜
桹
醹
鉹
膃
鵅
痐
竁
頖
芏
濰
峚
鴔
浹
儸
儈
##⋘
熜
潿
悢
髍
挀
郐
欉
颩
緗
✓
塋
臐
㗁
擙
縓
騍
僩
鷥
##┖
欐
鄍
欞
霪
鋩
鎡
牘
##ㄈ
##ㄣ
撋
ⅇ
吷
璘
娌
漶
荮
婼
穑
仫
嫴
涐
嚒
##↖
媓
悳
庅
橂
陒
繵
潗
嬀
呣
瘊
拻
##ᄊ
##ᇁ
♢
纄
徤
昜
黁
鍉
##ﾚ
##ｨ
劁
〒
邾
฿
ᄿ
頴
緌
膫
ɣ
俽
陠
##ㄙ
鋲
怾
晠
汣
疛
⒎
垤
繎
仡
匶
騐
嚰
佭
覗
柕
餠
愽
珢
卪
鸶
祾
蛴
渇
挍
珯
滖
##ヱ
︾
裗
##ǀ
阏
輊
⾏
⾜
俛
朞
暣
帻
垞
唖
瞐
跔
##㎌
柷
栐
耹
烺
圗
厡
鳏
##ヵ
凫
苅
欻
鲽
墹
韡
穣
##ﬃ
玭
搟
唽
卥
倇
杧
廇
姮
赹
莳
禚
圼
瓌
枊
⇓
螘
呏
瑨
摱
颋
蜮
糂
㡿
聃
娒
浐
籏
伡
撝
贇
跬
琣
硧
繖
箨
揥
昐
肂
濳
鹐
瑳
粠
埥
鳁
錧
袷
唦
箥
襀
鍷
憒
懛
陗
瞴
刬
熣
妏
ɩ
##ɩ
傔
鰤
哞
玍
幤
秌
逫
轪
黼
齄
奓
渞
拹
冮
秳
迱
傱
屚
酑
蜄
祡
淍
瞆
蹅
笌
酦
笢
踒
躄
褦
敚
颭
怗
肈
琁
洀
懔
綛
痄
硑
廯
馓
⽓
癓
柊
沶
焒
虌
霱
礽
勆
捬
愖
猹
缣
潓
呚
縻
暾
榥
郗
哝
侴
熥
瘿
烮
藨
蛅
杮
渃
獘
劽
哜
玱
閮
矓
燱
趬
貟
寽
搫
訒
璷
抏
鉐
摅
圶
㐰
恔
妵
耏
榶
暯
卌
迶
濧
皒
磧
挔
鐪
佸
瑑
愀
杔
緇
舡
廛
鯭
嗉
谮
彘
ﬂ
陬
鎻
蕹
锳
祋
觯
阛
袨
鍴
⍵
茷
萖
瘌
疒
箮
穋
禌
鳘
硇
圤
闁
簑
骱
堉
竑
硃
阊
釿
佱
玙
隄
##ㄑ
蹰
埜
垷
屾
奭
##ㄠ
謇
纩
旴
銰
饜
翃
挮
欇
罍
槷
扲
觝
嗌
褣
圊
摜
栯
尌
櫝
殫
跞
耧
藃
嶞
郚
鉎
軕
蚇
唅
蛓
霣
薆
墿
醑
𠃍
謷
韹
##▏
冚
仐
潳
硿
##㏑
##˜
楖
棾
膖
逺
埘
侟
╨
傿
笄
髫
曌
谖
瀵
琫
郯
饫
籀
輙
樗
##㎥
澿
頚
陃
曛
蒾
奁
蔹
脷
菍
癃
濩
爝
〨
硵
磳
塯
櫳
琤
挆
謘
嶝
硔
豰
罴
輮
墽
叄
衕
泖
跽
嬋
蟧
揨
蒇
唡
嶆
貺
圎
╔
嚿
梒
枟
鏥
勦
抳
##𝑟
##𝑓
檼
迣
鞹
薾
濊
艚
奻
裀
鵛
齓
榢
鬘
漎
蚼
鱭
蕯
圚
⑳
覜
¦
鍱
硞
獬
坌
蚸
豖
犖
鄴
覲
賅
黹
豲
璊
怲
屦
蚑
沍
輦
躨
饡
駶
蛩
仴
栬
旰
渖
劓
妯
欬
挐
峔
宒
菮
珘
敿
邥
鶶
╪
喨
薀
狦
魈
諘
悮
綹
跼
粌
堦
鍅
繂
菴
寣
僬
姛
枮
呇
橨
頇
蝍
辿
鈶
棼
菺
甡
沇
髡
崾
畋
磣
翵
捫
鬖
鞢
掭
桴
顰
杙
鄘
諀
妀
陘
蹐
烞
雠
缦
棻
谠
爦
圔
䚼
蝢
籉
蟼
鋾
膞
鵷
紇
韟
軆
騈
謫
鈤
匦
鈌
橉
杝
倀
驃
鯧
佪
恖
瓡
眥
攆
腇
麉
沩
┨
妠
菶
鞳
篢
冁
栠
諕
媼
銗
伷
彚
揤
諤
倱
׳
觔
聼
諉
屘
諢
憸
隢
堷
蚻
祴
緆
檷
虡
讑
餼
粢
כ
哿
捙
岉
欤
謖
蛁
牮
竤
##ⅺ
𠃊
訌
掑
鄏
糿
苂
簹
攛
靮
鮱
灤
迻
攅
胠
隬
諻
醠
溙
﹉
躂
褱
鷚
鶡
##ł
鋦
縕
釨
婓
亃
鎿
韉
笚
炴
坱
鱆
##☉
醓
胋
酜
蝀
烚
汌
繾
歜
遻
梫
鋑
飧
霬
釠
𠃑
##┬
鞒
幑
栔
緦
佾
爫
є
鄑
悝
贜
吣
櫂
罣
铓
槥
荄
𠯤
↙
鐤
崤
絖
胑
捛
檣
傰
糇
篧
蓳
毬
##ɛ
緮
瘨
銙
##⒂
僰
栢
瘉
酹
吇
睚
轺
畯
浥
媱
沨
塆
郾
##▆
忾
邙
呰
浍
洤
帔
娡
厑
猇
歃
黩
磻
巭
揠
踽
姠
苩
琯
煿
駌
妸
廪
牾
憷
滏
茔
糌
箢
馐
酽
##ю
蹁
虮
杹
稕
鄫
㏕
陹
陑
ￗ
綪
犞
庲
韾
幃
顓
垿
蚛
顊
傴
啍
瓽
骹
袦
殶
恂
鬩
錂
饙
閆
儗
澸
偁
##꞉
##ℜ
嘏
袶
緧
##∗
綼
稢
❉
簢
旵
襍
螦
##ᆭ
##┇
坢
瓅
媵
楱
羕
泬
愔
顚
苀
蓛
樀
簭
絈
棨
絣
恲
痽
埢
桫
镴
黻
抔
僤
銍
赸
芀
錤
楧
芵
恇
庍
躭
ﺀ
僠
詒
驄
譩
蚾
砮
繷
絁
懮
觰
刟
埶
暵
紖
檟
阹
灦
絼
挸
嶧
觫
镈
檨
耢
溒
呌
竲
扡
綄
𝑆
儺
魟
挏
唵
枙
挌
螈
栣
瀃
曁
抧
桊
焅
刴
厽
鰿
笣
朳
覀
虍
辵
豸
厰
龠
艸
飱
懐
姼
涚
癿
偅
郂
仹
##㈡
祧
鐜
泚
罻
菳
鋿
鯑
柹
珫
鵆
畺
舄
俜
硻
蘩
窆
顡
璝
硸
蹜
茑
摿
阌
鋽
誩
鹍
唨
轙
丒
㎤
撎
亽
湏
犇
愹
毪
澋
銾
簒
楄
韮
菐
錞
棪
偋
縂
潖
踦
莩
媑
攈
卲
袚
愼
˃
##ı
▓
镋
宱
岕
赪
脔
睱
瞢
朁
胅
♯
翥
睃
丳
莶
偒
##㎸
幇
珧
灜
颃
瘖
罨
癔
苺
垜
桭
##ㄗ
榼
踤
譶
##ㄡ
墁
珽
窼
覿
倹
汷
燏
墼
玶
ћ
裒
##ъ
姖
塨
駸
桗
釈
穽
嬃
揅
忝
㏄
晣
翆
蟊
墥
¸
涺
朜
螖
澩
螣
坽
脢
苼
縍
萿
衶
軩
駃
鸝
厏
帀
敟
礕
硾
薶
嬁
徢
訉
旊
稊
鬏
碷
鲻
浭
顀
豋
剄
朅
痲
㩦
轀
玾
鲮
囀
迍
##㏄
抩
揧
僀
佀
坈
靤
揗
酔
憵
蔳
凙
汮
籙
黧
竮
鹡
笵
炥
盺
呉
ʎ
栆
帎
芞
忁
倮
抷
譟
勀
搚
倞
蠘
##∵
蕞
昍
柼
徂
臑
##⁻
逭
柟
煕
粞
淥
霨
勍
眜
瘃
垧
霡
靯
薻
柗
浞
諙
郈
崚
憹
㖞
澣
猌
嫰
匢
掟
檓
蓇
葖
埮
秬
秛
兪
奵
鞞
挧
摴
嬲
喴
睷
湽
軎
宍
禴
揕
斝
埄
哹
躐
琎
龎
驲
䧏
漟
麪
醭
赗
氭
舘
朙
吢
檿
笴
鲌
鰔
鳜
塧
羝
墫
嘨
堒
疰
祙
菾
橶
梣
垳
蓷
狆
芄
蔎
熌
懝
唃
瀪
抣
豨
卆
栻
蟪
簊
猋
敋
筩
##≅
涊
鈖
鈏
搎
黕
嵼
驉
驆
##⒓
鍽
瑔
伈
藀
珨
窾
蛜
瑍
蟣
襦
塱
憺
揙
彄
泃
詧
兛
兝
蝬
晡
逜
砓
鈙
⒖
帤
洢
徥
茩
鸗
蚖
糷
儢
鬤
諵
檮
粨
蛢
梇
馧
塺
茇
俀
馑
縆
阞
㹬
蔩
罱
臱
埁
螻
捔
腜
葥
殾
搘
謶
慍
紬
賳
伒
眳
薱
硈
鴝
炰
韞
⒐
撌
顒
摮
椇
篯
瓖
茤
洈
暻
妐
銕
軉
鬊
拲
虪
祫
閰
蕔
撽
擏
褿
餯
澴
琽
榑
穭
黿
⒘
胗
錭
傓
藄
煾
╝
潀
馫
竻
鹎
籆
柪
鶷
雿
攳
𝜏
𝜆
𝑃
𝜘
##𝑘
𝜌
##𝑙
蚆
濢
揘
瑼
庤
蛃
蛚
醨
餗
靨
錎
乤
椊
炡
觟
糽
炋
沘
##ϕ
圇
酤
栜
葨
氝
廄
搊
虩
狺
鈟
襝
嶊
嚧
跠
糶
暔
嵝
⒚
挭
隉
煍
琡
荎
崞
絓
碠
塈
藆
翬
惷
摾
笒
箹
袺
熛
##ᴨ
郋
泎
琑
隰
閕
鴢
帩
丮
鞗
嬂
怽
蒆
砞
嗢
蚎
尨
窐
蟔
僂
瑏
樦
槨
浧
鹱
⋃
⋂
畎
俔
┺
##┏
磉
熿
煠
黌
鑋
⒕
##⒌
埲
跏
煑
豭
鮈
蕡
愴
枑
鄗
棶
憍
湓
┮
夽
硜
鋙
鴴
頠
聹
泙
篰
轘
赍
鬦
鬪
讋
裋
孅
埳
猼
軠
肰
橏
睤
睲
鼷
虼
戱
贂
驖
涆
淟
醎
郼
鎪
穔
觶
硤
俧
丂
釫
鬨
栚
涖
跴
鉇
闐
籩
僯
⒔
##㈩
滆
痋
鷜
頛
猁
##⒏
濶
厗
訹
漜
鵀
⇌
瑽
霠
笶
肊
暺
絪
嚶
谞
鉡
銂
鄎
鶬
犑
##⒄
繿
袽
轇
倎
饩
埐
糐
斕
皁
煓
吤
卂
譇
荌
偭
掗
駞
鴠
嬮
媔
顙
儱
菬
騉
睅
痡
伬
敼
覂
蠦
雓
曓
塿
磪
綞
僎
眊
廑
鑜
冓
怉
犴
莕
牿
︽
倛
僗
賻
峏
##〧
銴
畭
祆
捃
珒
鳹
伀
酴
顠
𝑛
牜
夊
廴
瀼
檵
欱
儔
秊
釅
捄
耤
滮
搷
峎
牉
齔
詻
ⓧ
锿
搨
簼
喤
矰
痚
萓
衖
汸
娸
挃
銶
𝑚
罊
銢
鰈
馎
䇢
灕
鞔
灨
鹬
貣
筥
裌
潷
鶔
垬
癆
偯
撏
蟦
曘
樿
锼
諼
佫
烝
梬
騠
鰼
竷
鷵
慝
鉰
銌
諲
衎
恉
齰
蒍
檑
偫
廔
煄
璅
襴
鉥
騃
跦
唭
禡
輇
伿
赯
蹌
謍
鶠
醻
䈤
㓥
鼂
黡
薷
嶠
慇
朢
鋉
淔
蚗
棜
墂
瑝
蝝
⺋
豏
絇
臏
鯆
锞
穊
趼
艗
脟
伖
萶
驐
鈜
暘
鋥
鯢
靬
潃
菑
鰫
鷂
鐕
甿
䜓
礭
髀
飴
圑
亶
錝
胵
钁
鱁
暬
蘯
鷞
獧
岝
鮯
獯
胙
犾
笁
覞
滶
茥
紴
愒
嬦
懹
眅
悜
蟢
饃
藎
薿
鋂
諛
蓀
絔
掽
##ㄝ
##ㄩ
##⑽
褭
摲
輀
斴
愄
靇
跂
絜
脰
譔
鉫
壎
鴞
㻣
旆
臈
鐑
羾
##〡
粻
碖
岽
咶
伃
禢
匽
縧
胷
誶
沰
舠
橧
妱
詊
╖
蚞
仈
╡
腞
雸
杽
偪
胹
酏
鱣
絚
忉
︸
恘
棖
倷
鶐
朚
盉
赕
##┙
刼
齪
菻
靰
菧
鹁
蚥
硉
㺲
槀
醆
摚
檍
玨
磈
溸
瓃
浻
鈆
犳
犓
袙
蘀
禆
鱧
魋
陊
呾
牁
鱟
澽
獢
醊
沺
阨
篳
焢
檠
荺
崕
鶝
堣
隳
嫜
┟
窱
騕
淐
汄
叺
誀
湣
祹
璗
犗
寭
籈
齫
##▁
搯
鶳
鋆
縶
粡
嵂
搣
銵
##⒆
〦
躕
怹
抇
膙
蒫
姅
奾
筇
##┍
圁
燸
涳
蒣
褊
##ϵ
坴
##ㄜ
傒
##∂
湹
鎱
畣
眛
駙
縵
㛎
麍
媢
癩
斪
嵁
偟
蕷
灀
焍
騢
坲
潾
裬
緲
椷
嶨
##ᵢ
僉
蜋
塲
螧
賌
磿
輍
蜛
鰽
椏
輲
諍
遳
餹
軑
騚
貜
篲
硚
玡
湴
鸹
鄚
墈
泺
##ð
¿
瑒
荭
埈
俹
忮
婲
侢
埖
竾
嬑
厾
朂
鬯
悛
怩
婳
鲩
昽
魞
孨
漖
坬
墕
崄
磜
圫
邗
鶽
珴
曷
羙
婯
嫆
剘
慲
烸
掱
￼
酾
翮
牖
酃
僦
嶷
萣
莋
泹
鬻
蕖
荬
狯
觏
缗
侩
谫
骟
觚
诒
燹
兎
蜞
殍
鹇
趿
浈
##瓊
##瓏
##瓒
##瓜
##瓢
##瓣
##瓤
##瓦
##瓮
##瓯
##瓴
##瓶
##瓷
##甄
##甌
##甕
##甘
##甙
##甚
##甜
##生
##產
##産
##甥
##甦
##用
##甩
##甫
##甬
##甭
##甯
##田
##由
##甲
##申
##电
##男
##甸
##町
##画
##甾
##畀
##畅
##界
##畏
##畑
##畔
##留
##畜
##畝
##畢
##略
##畦
##番
##畫
##異
##畲
##畳
##畴
##當
##畸
##畹
##畿
##疆
##疇
##疊
##疏
##疑
##疔
##疖
##疗
##疙
##疚
##疝
##疟
##疡
##疣
##疤
##疥
##疫
##疮
##疯
##疱
##疲
##疳
##疵
##疸
##疹
##疼
##疽
##疾
##痂
##病
##症
##痈
##痉
##痊
##痍
##痒
##痔
##痕
##痘
##痙
##痛
##痞
##痠
##痢
##痣
##痤
##痧
##痨
##痪
##痫
##痰
##痱
##痴
##痹
##痺
##痼
##痿
##瘀
##瘁
##瘋
##瘍
##瘓
##瘘
##瘙
##瘟
##瘠
##瘡
##瘢
##瘤
##瘦
##瘧
##瘩
##瘪
##瘫
##瘴
##瘸
##瘾
##療
##癇
##癌
##癒
##癖
##癜
##癞
##癡
##癢
##癣
##癥
##癫
##癬
##癮
##癱
##癲
##癸
##発
##登
##發
##白
##百
##皂
##的
##皆
##皇
##皈
##皋
##皎
##皑
##皓
##皖
##皙
##皚
##皮
##皰
##皱
##皴
##皺
##皿
##盂
##盃
##盅
##盆
##盈
##益
##盎
##盏
##盐
##监
##盒
##盔
##盖
##盗
##盘
##盛
##盜
##盞
##盟
##盡
##監
##盤
##盥
##盧
##盪
##目
##盯
##盱
##盲
##直
##相
##盹
##盼
##盾
##省
##眈
##眉
##看
##県
##眙
##眞
##真
##眠
##眦
##眨
##眩
##眯
##眶
##眷
##眸
##眺
##眼
##眾
##着
##睁
##睇
##睏
##睐
##睑
##睛
##睜
##睞
##睡
##睢
##督
##睥
##睦
##睨
##睪
##睫
##睬
##睹
##睽
##睾
##睿
##瞄
##瞅
##瞇
##瞋
##瞌
##瞎
##瞑
##瞒
##瞓
##瞞
##瞟
##瞠
##瞥
##瞧
##瞩
##瞪
##瞬
##瞭
##瞰
##瞳
##瞻
##瞼
##瞿
##矇
##矍
##矗
##矚
##矛
##矜
##矢
##矣
##知
##矩
##矫
##短
##矮
##矯
##石
##矶
##矽
##矾
##矿
##码
##砂
##砌
##砍
##砒
##研
##砖
##砗
##砚
##砝
##砣
##砥
##砧
##砭
##砰
##砲
##破
##砷
##砸
##砺
##砼
##砾
##础
##硅
##硐
##硒
##硕
##硝
##硫
##硬
##确
##硯
##硼
##碁
##碇
##碉
##碌
##碍
##碎
##碑
##碓
##碗
##碘
##碚
##碛
##碟
##碣
##碧
##碩
##碰
##碱
##碳
##碴
##確
##碼
##碾
##磁
##磅
##磊
##磋
##磐
##磕
##磚
##磡
##磨
##磬
##磯
##磲
##磷
##磺
##礁
##礎
##礙
##礡
##礦
##礪
##礫
##礴
##示
##礼
##社
##祀
##祁
##祂
##祇
##祈
##祉
##祎
##祐
##祕
##祖
##祗
##祚
##祛
##祜
##祝
##神
##祟
##祠
##祢
##祥
##票
##祭
##祯
##祷
##祸
##祺
##祿
##禀
##禁
##禄
##禅
##禍
##禎
##福
##禛
##禦
##禧
##禪
##禮
##禱
##禹
##禺
##离
##禽
##禾
##禿
##秀
##私
##秃
##秆
##秉
##秋
##种
##科
##秒
##秘
##租
##秣
##秤
##秦
##秧
##秩
##秭
##积
##称
##秸
##移
##秽
##稀
##稅
##程
##稍
##税
##稔
##稗
##稚
##稜
##稞
##稟
##稠
##稣
##種
##稱
##稲
##稳
##稷
##稹
##稻
##稼
##稽
##稿
##穀
##穂
##穆
##穌
##積
##穎
##穗
##穢
##穩
##穫
##穴
##究
##穷
##穹
##空
##穿
##突
##窃
##窄
##窈
##窍
##窑
##窒
##窓
##窕
##窖
##窗
##窘
##窜
##窝
##窟
##窠
##窥
##窦
##窨
##窩
##窪
##窮
##窯
##窺
##窿
##竄
##竅
##竇
##竊
##立
##竖
##站
##竜
##竞
##竟
##章
##竣
##童
##竭
##端
##競
##竹
##竺
##竽
##竿
##笃
##笆
##笈
##笋
##笏
##笑
##笔
##笙
##笛
##笞
##笠
##符
##笨
##第
##笹
##笺
##笼
##筆
##等
##筊
##筋
##筍
##筏
##筐
##筑
##筒
##答
##策
##筛
##筝
##筠
##筱
##筲
##筵
##筷
##筹
##签
##简
##箇
##箋
##箍
##箏
##箐
##箔
##箕
##算
##箝
##管
##箩
##箫
##箭
##箱
##箴
##箸
##節
##篁
##範
##篆
##篇
##築
##篑
##篓
##篙
##篝
##篠
##篡
##篤
##篩
##篪
##篮
##篱
##篷
##簇
##簌
##簍
##簡
##簦
##簧
##簪
##簫
##簷
##簸
##簽
##簾
##簿
##籁
##籃
##籌
##籍
##籐
##籟
##籠
##籤
##籬
##籮
##籲
##米
##类
##籼
##籽
##粄
##粉
##粑
##粒
##粕
##粗
##粘
##粟
##粤
##粥
##粧
##粪
##粮
##粱
##粲
##粳
##粵
##粹
##粼
##粽
##精
##粿
##糅
##糊
##糍
##糕
##糖
##糗
##糙
##糜
##糞
##糟
##糠
##糧
##糬
##糯
##糰
##糸
##系
##糾
##紀
##紂
##約
##紅
##紉
##紊
##紋
##納
##紐
##紓
##純
##紗
##紘
##紙
##級
##紛
##紜
##素
##紡
##索
##紧
##紫
##紮
##累
##細
##紳
##紹
##紺
##終
##絃
##組
##絆
##経
##結
##絕
##絞
##絡
##絢
##給
##絨
##絮
##統
##絲
##絳
##絵
##絶
##絹
##綁
##綏
##綑
##經
##継
##続
##綜
##綠
##綢
##綦
##綫
##綬
##維
##綱
##網
##綴
##綵
##綸
##綺
##綻
##綽
##綾
##綿
##緊
##緋
##総
##緑
##緒
##緘
##線
##緝
##緞
##締
##緣
##編
##緩
##緬
##緯
##練
##緹
##緻
##縁
##縄
##縈
##縛
##縝
##縣
##縫
##縮
##縱
##縴
##縷
##總
##績
##繁
##繃
##繆
##繇
##繋
##織
##繕
##繚
##繞
##繡
##繩
##繪
##繫
##繭
##繳
##繹
##繼
##繽
##纂
##續
##纍
##纏
##纓
##纔
##纖
##纜
##纠
##红
##纣
##纤
##约
##级
##纨
##纪
##纫
##纬
##纭
##纯
##纰
##纱
##纲
##纳
##纵
##纶
##纷
##纸
##纹
##纺
##纽
##纾
##线
##绀
##练
##组
##绅
##细
##织
##终
##绊
##绍
##绎
##经
##绑
##绒
##结
##绔
##绕
##绘
##给
##绚
##绛
##络
##绝
##绞
##统
##绡
##绢
##绣
##绥
##绦
##继
##绩
##绪
##绫
##续
##绮
##绯
##绰
##绳
##维
##绵
##绶
##绷
##绸
##绻
##综
##绽
##绾
##绿
##缀
##缄
##缅
##缆
##缇
##缈
##缉
##缎
##缓
##缔
##缕
##编
##缘
##缙
##缚
##缜
##缝
##缠
##缢
##缤
##缥
##缨
##缩
##缪
##缭
##缮
##缰
##缱
##缴
##缸
##缺
##缽
##罂
##罄
##罌
##罐
##网
##罔
##罕
##罗
##罚
##罡
##罢
##罩
##罪
##置
##罰
##署
##罵
##罷
##罹
##羁
##羅
##羈
##羊
##羌
##美
##羔
##羚
##羞
##羟
##羡
##羣
##群
##羥
##羧
##羨
##義
##羯
##羲
##羸
##羹
##羽
##羿
##翁
##翅
##翊
##翌
##翎
##習
##翔
##翘
##翟
##翠
##翡
##翦
##翩
##翰
##翱
##翳
##翹
##翻
##翼
##耀
##老
##考
##耄
##者
##耆
##耋
##而
##耍
##耐
##耒
##耕
##耗
##耘
##耙
##耦
##耨
##耳
##耶
##耷
##耸
##耻
##耽
##耿
##聂
##聆
##聊
##聋
##职
##聒
##联
##聖
##聘
##聚
##聞
##聪
##聯
##聰
##聲
##聳
##聴
##聶
##職
##聽
##聾
##聿
##肃
##肄
##肅
##肆
##肇
##肉
##肋
##肌
##肏
##肓
##肖
##肘
##肚
##肛
##肝
##肠
##股
##肢
##肤
##肥
##肩
##肪
##肮
##肯
##肱
##育
##肴
##肺
##肽
##肾
##肿
##胀
##胁
##胃
##胄
##胆
##背
##胍
##胎
##胖
##胚
##胛
##胜
##胝
##胞
##胡
##胤
##胥
##胧
##胫
##胭
##胯
##胰
##胱
##胳
##胴
##胶
##胸
##胺
##能
##脂
##脅
##脆
##脇
##脈
##脉
##脊
##脍
##脏
##脐
##脑
##脓
##脖
##脘
##脚
##脛
##脣
##脩
##脫
##脯
##脱
##脲
##脳
##脸
##脹
##脾
##腆
##腈
##腊
##腋
##腌
##腎
##腐
##腑
##腓
##腔
##腕
##腥
##腦
##腩
##腫
##腭
##腮
##腰
##腱
##腳
##腴
##腸
##腹
##腺
##腻
##腼
##腾
##腿
##膀
##膈
##膊
##膏
##膑
##膘
##膚
##膛
##膜
##膝
##膠
##膦
##膨
##膩
##膳
##膺
##膻
##膽
##膾
##膿
##臀
##臂
##臃
##臆
##臉
##臊
##臍
##臓
##臘
##臟
##臣
##臥
##臧
##臨
##自
##臬
##臭
##至
##致
##臺
##臻
##臼
##臾
##舀
##舂
##舅
##舆
##與
##興
##舉
##舊
##舌
##舍
##舎
##舐
##舒
##舔
##舖
##舗
##舛
##舜
##舞
##舟
##航
##舫
##般
##舰
##舱
##舵
##舶
##舷
##舸
##船
##舺
##舾
##艇
##艋
##艘
##艙
##艦
##艮
##良
##艰
##艱
##色
##艳
##艷
##艹
##艺
##艾
##节
##芃
##芈
##芊
##芋
##芍
##芎
##芒
##芙
##芜
##芝
##芡
##芥
##芦
##芩
##芪
##芫
##芬
##芭
##芮
##芯
##花
##芳
##芷
##芸
##芹
##芻
##芽
##芾
##苁
##苄
##苇
##苋
##苍
##苏
##苑
##苒
##苓
##苔
##苕
##苗
##苛
##苜
##苞
##苟
##苡
##苣
##若
##苦
##苫
##苯
##英
##苷
##苹
##苻
##茁
##茂
##范
##茄
##茅
##茉
##茎
##茏
##茗
##茜
##茧
##茨
##茫
##茬
##茭
##茯
##茱
##茲
##茴
##茵
##茶
##茸
##茹
##茼
##荀
##荃
##荆
##草
##荊
##荏
##荐
##荒
##荔
##荖
##荘
##荚
##荞
##荟
##荠
##荡
##荣
##荤
##荥
##荧
##荨
##荪
##荫
##药
##荳
##荷
##荸
##荻
##荼
##荽
##莅
##莆
##莉
##莊
##莎
##莒
##莓
##莖
##莘
##莞
##莠
##莢
##莧
##莪
##莫
##莱
##莲
##莴
##获
##莹
##莺
##莽
##莿
##菀
##菁
##菅
##菇
##菈
##菊
##菌
##菏
##菓
##菖
##菘
##菜
##菟
##菠
##菡
##菩
##華
##菱
##菲
##菸
##菽
##萁
##萃
##萄
##萊
##萋
##萌
##萍
##萎
##萘
##萝
##萤
##营
##萦
##萧
##萨
##萩
##萬
##萱
##萵
##萸
##萼
##落
##葆
##葉
##著
##葚
##葛
##葡
##董
##葦
##葩
##葫
##葬
##葭
##葯
##葱
##葳
##葵
##葷
##葺
##蒂
##蒋
##蒐
##蒔
##蒙
##蒜
##蒞
##蒟
##蒡
##蒨
##蒲
##蒸
##蒹
##蒻
##蒼
##蒿
##蓁
##蓄
##蓆
##蓉
##蓋
##蓑
##蓓
##蓖
##蓝
##蓟
##蓦
##蓬
##蓮
##蓼
##蓿
##蔑
##蔓
##蔔
##蔗
##蔘
##蔚
##蔡
##蔣
##蔥
##蔫
##蔬
##蔭
##蔵
##蔷
##蔺
##蔻
##蔼
##蔽
##蕁
##蕃
##蕈
##蕉
##蕊
##蕎
##蕙
##蕤
##蕨
##蕩
##蕪
##蕭
##蕲
##蕴
##蕻
##蕾
##薄
##薅
##薇
##薈
##薊
##薏
##薑
##薔
##薙
##薛
##薦
##薨
##薩
##薪
##薬
##薯
##薰
##薹
##藉
##藍
##藏
##藐
##藓
##藕
##藜
##藝
##藤
##藥
##藩
##藹
##藻
##藿
##蘆
##蘇
##蘊
##蘋
##蘑
##蘚
##蘭
##蘸
##蘼
##蘿
##虎
##虏
##虐
##虑
##虔
##處
##虚
##虛
##虜
##虞
##號
##虢
##虧
##虫
##虬
##虱
##虹
##虻
##虽
##虾
##蚀
##蚁
##蚂
##蚊
##蚌
##蚓
##蚕
##蚜
##蚝
##蚣
##蚤
##蚩
##蚪
##蚯
##蚱
##蚵
##蛀
##蛆
##蛇
##蛊
##蛋
##蛎
##蛐
##蛔
##蛙
##蛛
##蛟
##蛤
##蛭
##蛮
##蛰
##蛳
##蛹
##蛻
##蛾
##蜀
##蜂
##蜃
##蜆
##蜇
##蜈
##蜊
##蜍
##蜒
##蜓
##蜕
##蜗
##蜘
##蜚
##蜜
##蜡
##蜢
##蜥
##蜱
##蜴
##蜷
##蜻
##蜿
##蝇
##蝈
##蝉
##蝌
##蝎
##蝕
##蝗
##蝙
##蝟
##蝠
##蝦
##蝨
##蝴
##蝶
##蝸
##蝼
##螂
##螃
##融
##螞
##螢
##螨
##螯
##螳
##螺
##蟀
##蟄
##蟆
##蟋
##蟎
##蟑
##蟒
##蟠
##蟬
##蟲
##蟹
##蟻
##蟾
##蠅
##蠍
##蠔
##蠕
##蠛
##蠟
##蠡
##蠢
##蠣
##蠱
##蠶
##蠹
##蠻
##血
##衄
##衅
##衆
##行
##衍
##術
##衔
##街
##衙
##衛
##衝
##衞
##衡
##衢
##衣
##补
##表
##衩
##衫
##衬
##衮
##衰
##衲
##衷
##衹
##衾
##衿
##袁
##袂
##袄
##袅
##袈
##袋
##袍
##袒
##袖
##袜
##袞
##袤
##袪
##被
##袭
##袱
##裁
##裂
##装
##裆
##裊
##裏
##裔
##裕
##裘
##裙
##補
##裝
##裟
##裡
##裤
##裨
##裱
##裳
##裴
##裸
##裹
##製
##裾
##褂
##複
##褐
##褒
##褓
##褔
##褚
##褥
##褪
##褫
##褲
##褶
##褻
##襁
##襄
##襟
##襠
##襪
##襬
##襯
##襲
##西
##要
##覃
##覆
##覇
##見
##規
##覓
##視
##覚
##覦
##覧
##親
##覬
##観
##覷
##覺
##覽
##觀
##见
##观
##规
##觅
##视
##览
##觉
##觊
##觎
##觐
##觑
##角
##觞
##解
##觥
##触
##觸
##言
##訂
##計
##訊
##討
##訓
##訕
##訖
##託
##記
##訛
##訝
##訟
##訣
##訥
##訪
##設
##許
##訳
##訴
##訶
##診
##註
##証
##詆
##詐
##詔
##評
##詛
##詞
##詠
##詡
##詢
##詣
##試
##詩
##詫
##詬
##詭
##詮
##詰
##話
##該
##詳
##詹
##詼
##誅
##誇
##誉
##誌
##認
##誓
##誕
##誘
##語
##誠
##誡
##誣
##誤
##誥
##誦
##誨
##說
##説
##読
##誰
##課
##誹
##誼
##調
##諄
##談
##請
##諏
##諒
##論
##諗
##諜
##諡
##諦
##諧
##諫
##諭
##諮
##諱
##諳
##諷
##諸
##諺
##諾
##謀
##謁
##謂
##謄
##謊
##謎
##謐
##謔
##謗
##謙
##講
##謝
##謠
##謨
##謬
##謹
##謾
##譁
##證
##譎
##譏
##識
##譙
##譚
##譜
##警
##譬
##譯
##議
##譲
##譴
##護
##譽
##讀
##變
##讓
##讚
##讞
##计
##订
##认
##讥
##讧
##讨
##让
##讪
##讫
##训
##议
##讯
##记
##讲
##讳
##讴
##讶
##讷
##许
##讹
##论
##讼
##讽
##设
##访
##诀
##证
##诃
##评
##诅
##识
##诈
##诉
##诊
##诋
##词
##诏
##译
##试
##诗
##诘
##诙
##诚
##诛
##话
##诞
##诟
##诠
##诡
##询
##诣
##诤
##该
##详
##诧
##诩
##诫
##诬
##语
##误
##诰
##诱
##诲
##说
##诵
##诶
##请
##诸
##诺
##读
##诽
##课
##诿
##谀
##谁
##调
##谄
##谅
##谆
##谈
##谊
##谋
##谌
##谍
##谎
##谏
##谐
##谑
##谒
##谓
##谔
##谕
##谗
##谘
##谙
##谚
##谛
##谜
##谟
##谢
##谣
##谤
##谥
##谦
##谧
##谨
##谩
##谪
##谬
##谭
##谯
##谱
##谲
##谴
##谶
##谷
##豁
##豆
##豇
##豈
##豉
##豊
##豌
##豎
##豐
##豔
##豚
##象
##豢
##豪
##豫
##豬
##豹
##豺
##貂
##貅
##貌
##貓
##貔
##貘
##貝
##貞
##負
##財
##貢
##貧
##貨
##販
##貪
##貫
##責
##貯
##貰
##貳
##貴
##貶
##買
##貸
##費
##貼
##貽
##貿
##賀
##賁
##賂
##賃
##賄
##資
##賈
##賊
##賑
##賓
##賜
##賞
##賠
##賡
##賢
##賣
##賤
##賦
##質
##賬
##賭
##賴
##賺
##購
##賽
##贅
##贈
##贊
##贍
##贏
##贓
##贖
##贛
##贝
##贞
##负
##贡
##财
##责
##贤
##败
##账
##货
##质
##贩
##贪
##贫
##贬
##购
##贮
##贯
##贰
##贱
##贲
##贴
##贵
##贷
##贸
##费
##贺
##贻
##贼
##贾
##贿
##赁
##赂
##赃
##资
##赅
##赈
##赊
##赋
##赌
##赎
##赏
##赐
##赓
##赔
##赖
##赘
##赚
##赛
##赝
##赞
##赠
##赡
##赢
##赣
##赤
##赦
##赧
##赫
##赭
##走
##赳
##赴
##赵
##赶
##起
##趁
##超
##越
##趋
##趕
##趙
##趟
##趣
##趨
##足
##趴
##趵
##趸
##趺
##趾
##跃
##跄
##跆
##跋
##跌
##跎
##跑
##跖
##跚
##跛
##距
##跟
##跡
##跤
##跨
##跩
##跪
##路
##跳
##践
##跷
##跹
##跺
##跻
##踉
##踊
##踌
##踏
##踐
##踝
##踞
##踟
##踢
##踩
##踪
##踮
##踱
##踴
##踵
##踹
##蹂
##蹄
##蹇
##蹈
##蹉
##蹊
##蹋
##蹑
##蹒
##蹙
##蹟
##蹣
##蹤
##蹦
##蹩
##蹬
##蹭
##蹲
##蹴
##蹶
##蹺
##蹼
##蹿
##躁
##躇
##躉
##躊
##躋
##躍
##躏
##躪
##身
##躬
##躯
##躲
##躺
##軀
##車
##軋
##軌
##軍
##軒
##軟
##転
##軸
##軼
##軽
##軾
##較
##載
##輒
##輓
##輔
##輕
##輛
##輝
##輟
##輩
##輪
##輯
##輸
##輻
##輾
##輿
##轄
##轅
##轆
##轉
##轍
##轎
##轟
##车
##轧
##轨
##轩
##转
##轭
##轮
##软
##轰
##轲
##轴
##轶
##轻
##轼
##载
##轿
##较
##辄
##辅
##辆
##辇
##辈
##辉
##辊
##辍
##辐
##辑
##输
##辕
##辖
##辗
##辘
##辙
##辛
##辜
##辞
##辟
##辣
##辦
##辨
##辩
##辫
##辭
##辮
##辯
##辰
##辱
##農
##边
##辺
##辻
##込
##辽
##达
##迁
##迂
##迄
##迅
##过
##迈
##迎
##运
##近
##返
##还
##这
##进
##远
##违
##连
##迟
##迢
##迤
##迥
##迦
##迩
##迪
##迫
##迭
##述
##迴
##迷
##迸
##迹
##迺
##追
##退
##送
##适
##逃
##逅
##逆
##选
##逊
##逍
##透
##逐
##递
##途
##逕
##逗
##這
##通
##逛
##逝
##逞
##速
##造
##逢
##連
##逮
##週
##進
##逵
##逶
##逸
##逻
##逼
##逾
##遁
##遂
##遅
##遇
##遊
##運
##遍
##過
##遏
##遐
##遑
##遒
##道
##達
##違
##遗
##遙
##遛
##遜
##遞
##遠
##遢
##遣
##遥
##遨
##適
##遭
##遮
##遲
##遴
##遵
##遶
##遷
##選
##遺
##遼
##遽
##避
##邀
##邁
##邂
##邃
##還
##邇
##邈
##邊
##邋
##邏
##邑
##邓
##邕
##邛
##邝
##邢
##那
##邦
##邨
##邪
##邬
##邮
##邯
##邰
##邱
##邳
##邵
##邸
##邹
##邺
##邻
##郁
##郅
##郊
##郎
##郑
##郜
##郝
##郡
##郢
##郤
##郦
##郧
##部
##郫
##郭
##郴
##郵
##郷
##郸
##都
##鄂
##鄉
##鄒
##鄔
##鄙
##鄞
##鄢
##鄧
##鄭
##鄰
##鄱
##鄲
##鄺
##酉
##酊
##酋
##酌
##配
##酐
##酒
##酗
##酚
##酝
##酢
##酣
##酥
##酩
##酪
##酬
##酮
##酯
##酰
##酱
##酵
##酶
##酷
##酸
##酿
##醃
##醇
##醉
##醋
##醍
##醐
##醒
##醚
##醛
##醜
##醞
##醣
##醪
##醫
##醬
##醮
##醯
##醴
##醺
##釀
##釁
##采
##釉
##释
##釋
##里
##重
##野
##量
##釐
##金
##釗
##釘
##釜
##針
##釣
##釦
##釧
##釵
##鈀
##鈉
##鈍
##鈎
##鈔
##鈕
##鈞
##鈣
##鈦
##鈪
##鈴
##鈺
##鈾
##鉀
##鉄
##鉅
##鉉
##鉑
##鉗
##鉚
##鉛
##鉤
##鉴
##鉻
##銀
##銃
##銅
##銑
##銓
##銖
##銘
##銜
##銬
##銭
##銮
##銳
##銷
##銹
##鋁
##鋅
##鋒
##鋤
##鋪
##鋰
##鋸
##鋼
##錄
##錐
##錘
##錚
##錠
##錢
##錦
##錨
##錫
##錮
##錯
##録
##錳
##錶
##鍊
##鍋
##鍍
##鍛
##鍥
##鍰
##鍵
##鍺
##鍾
##鎂
##鎊
##鎌
##鎏
##鎔
##鎖
##鎗
##鎚
##鎧
##鎬
##鎮
##鎳
##鏈
##鏖
##鏗
##鏘
##鏞
##鏟
##鏡
##鏢
##鏤
##鏽
##鐘
##鐮
##鐲
##鐳
##鐵
##鐸
##鐺
##鑄
##鑊
##鑑
##鑒
##鑣
##鑫
##鑰
##鑲
##鑼
##鑽
##鑾
##鑿
##针
##钉
##钊
##钎
##钏
##钒
##钓
##钗
##钙
##钛
##钜
##钝
##钞
##钟
##钠
##钡
##钢
##钣
##钤
##钥
##钦
##钧
##钨
##钩
##钮
##钯
##钰
##钱
##钳
##钴
##钵
##钺
##钻
##钼
##钾
##钿
##铀
##铁
##铂
##铃
##铄
##铅
##铆
##铉
##铎
##铐
##铛
##铜
##铝
##铠
##铡
##铢
##铣
##铤
##铨
##铩
##铬
##铭
##铮
##铰
##铲
##铵
##银
##铸
##铺
##链
##铿
##销
##锁
##锂
##锄
##锅
##锆
##锈
##锉
##锋
##锌
##锏
##锐
##锑
##错
##锚
##锟
##锡
##锢
##锣
##锤
##锥
##锦
##锭
##键
##锯
##锰
##锲
##锵
##锹
##锺
##锻
##镀
##镁
##镂
##镇
##镉
##镌
##镍
##镐
##镑
##镕
##镖
##镗
##镛
##镜
##镣
##镭
##镯
##镰
##镳
##镶
##長
##长
##門
##閃
##閉
##開
##閎
##閏
##閑
##閒
##間
##閔
##閘
##閡
##関
##閣
##閥
##閨
##閩
##閱
##閲
##閹
##閻
##閾
##闆
##闇
##闊
##闌
##闍
##闔
##闕
##闖
##闘
##關
##闡
##闢
##门
##闪
##闫
##闭
##问
##闯
##闰
##闲
##间
##闵
##闷
##闸
##闹
##闺
##闻
##闽
##闾
##阀
##阁
##阂
##阅
##阆
##阇
##阈
##阉
##阎
##阐
##阑
##阔
##阕
##阖
##阙
##阚
##阜
##队
##阡
##阪
##阮
##阱
##防
##阳
##阴
##阵
##阶
##阻
##阿
##陀
##陂
##附
##际
##陆
##陇
##陈
##陋
##陌
##降
##限
##陕
##陛
##陝
##陞
##陟
##陡
##院
##陣
##除
##陨
##险
##陪
##陰
##陲
##陳
##陵
##陶
##陷
##陸
##険
##陽
##隅
##隆
##隈
##隊
##隋
##隍
##階
##随
##隐
##隔
##隕
##隘
##隙
##際
##障
##隠
##隣
##隧
##隨
##險
##隱
##隴
##隶
##隸
##隻
##隼
##隽
##难
##雀
##雁
##雄
##雅
##集
##雇
##雉
##雋
##雌
##雍
##雎
##雏
##雑
##雒
##雕
##雖
##雙
##雛
##雜
##雞
##離
##難
##雨
##雪
##雯
##雰
##雲
##雳
##零
##雷
##雹
##電
##雾
##需
##霁
##霄
##霆
##震
##霈
##霉
##霊
##霍
##霎
##霏
##霑
##霓
##霖
##霜
##霞
##霧
##霭
##霰
##露
##霸
##霹
##霽
##霾
##靂
##靄
##靈
##青
##靓
##靖
##静
##靚
##靛
##靜
##非
##靠
##靡
##面
##靥
##靦
##革
##靳
##靴
##靶
##靼
##鞅
##鞋
##鞍
##鞏
##鞑
##鞘
##鞠
##鞣
##鞦
##鞭
##韆
##韋
##韌
##韓
##韜
##韦
##韧
##韩
##韬
##韭
##音
##韵
##韶
##韻
##響
##頁
##頂
##頃
##項
##順
##須
##頌
##預
##頑
##頒
##頓
##頗
##領
##頜
##頡
##頤
##頫
##頭
##頰
##頷
##頸
##頹
##頻
##頼
##顆
##題
##額
##顎
##顏
##顔
##願
##顛
##類
##顧
##顫
##顯
##顱
##顴
##页
##顶
##顷
##项
##顺
##须
##顼
##顽
##顾
##顿
##颁
##颂
##预
##颅
##领
##颇
##颈
##颉
##颊
##颌
##颍
##颐
##频
##颓
##颔
##颖
##颗
##题
##颚
##颛
##颜
##额
##颞
##颠
##颡
##颢
##颤
##颦
##颧
##風
##颯
##颱
##颳
##颶
##颼
##飄
##飆
##风
##飒
##飓
##飕
##飘
##飙
##飚
##飛
##飞
##食
##飢
##飨
##飩
##飪
##飯
##飲
##飼
##飽
##飾
##餃
##餅
##餉
##養
##餌
##餐
##餒
##餓
##餘
##餚
##餛
##餞
##餡
##館
##餮
##餵
##餾
##饅
##饈
##饋
##饌
##饍
##饑
##饒
##饕
##饗
##饞
##饥
##饨
##饪
##饬
##饭
##饮
##饯
##饰
##饱
##饲
##饴
##饵
##饶
##饷
##饺
##饼
##饽
##饿
##馀
##馁
##馄
##馅
##馆
##馈
##馋
##馍
##馏
##馒
##馔
##首
##馗
##香
##馥
##馨
##馬
##馭
##馮
##馳
##馴
##駁
##駄
##駅
##駆
##駐
##駒
##駕
##駛
##駝
##駭
##駱
##駿
##騁
##騎
##騏
##験
##騙
##騨
##騰
##騷
##驀
##驅
##驊
##驍
##驒
##驕
##驗
##驚
##驛
##驟
##驢
##驥
##马
##驭
##驮
##驯
##驰
##驱
##驳
##驴
##驶
##驷
##驸
##驹
##驻
##驼
##驾
##驿
##骁
##骂
##骄
##骅
##骆
##骇
##骈
##骊
##骋
##验
##骏
##骐
##骑
##骗
##骚
##骛
##骜
##骞
##骠
##骡
##骤
##骥
##骧
##骨
##骯
##骰
##骶
##骷
##骸
##骼
##髂
##髅
##髋
##髏
##髒
##髓
##體
##髖
##高
##髦
##髪
##髮
##髯
##髻
##鬃
##鬆
##鬍
##鬓
##鬚
##鬟
##鬢
##鬣
##鬥
##鬧
##鬱
##鬼
##魁
##魂
##魄
##魅
##魇
##魍
##魏
##魔
##魘
##魚
##魯
##魷
##鮑
##鮨
##鮪
##鮭
##鮮
##鯉
##鯊
##鯖
##鯛
##鯨
##鯰
##鯽
##鰍
##鰓
##鰭
##鰲
##鰻
##鰾
##鱈
##鱉
##鱔
##鱗
##鱷
##鱸
##鱼
##鱿
##鲁
##鲈
##鲍
##鲑
##鲛
##鲜
##鲟
##鲢
##鲤
##鲨
##鲫
##鲱
##鲲
##鲶
##鲷
##鲸
##鳃
##鳄
##鳅
##鳌
##鳍
##鳕
##鳖
##鳗
##鳝
##鳞
##鳥
##鳩
##鳳
##鳴
##鳶
##鴉
##鴕
##鴛
##鴦
##鴨
##鴻
##鴿
##鵑
##鵜
##鵝
##鵡
##鵬
##鵰
##鵲
##鶘
##鶩
##鶯
##鶴
##鷗
##鷲
##鷹
##鷺
##鸚
##鸞
##鸟
##鸠
##鸡
##鸢
##鸣
##鸥
##鸦
##鸨
##鸪
##鸭
##鸯
##鸳
##鸵
##鸽
##鸾
##鸿
##鹂
##鹃
##鹄
##鹅
##鹈
##鹉
##鹊
##鹌
##鹏
##鹑
##鹕
##鹘
##鹜
##鹞
##鹤
##鹦
##鹧
##鹫
##鹭
##鹰
##鹳
##鹵
##鹹
##鹼
##鹽
##鹿
##麂
##麋
##麒
##麓
##麗
##麝
##麟
##麥
##麦
##麩
##麴
##麵
##麸
##麺
##麻
##麼
##麽
##麾
##黃
##黄
##黍
##黎
##黏
##黑
##黒
##黔
##默
##黛
##黜
##黝
##點
##黠
##黨
##黯
##黴
##鼋
##鼎
##鼐
##鼓
##鼠
##鼬
##鼹
##鼻
##鼾
##齁
##齊
##齋
##齐
##齒
##齡
##齢
##齣
##齦
##齿
##龄
##龅
##龈
##龊
##龋
##龌
##龍
##龐
##龔
##龕
##龙
##龚
##龛
##龜
##龟
##︰
##︱
##︶
##︿
##﹁
##﹂
##﹍
##﹏
##﹐
##﹑
##﹒
##﹔
##﹕
##﹖
##﹗
##﹙
##﹚
##﹝
##﹞
##﹡
##﹣
##！
##＂
##＃
##＄
##％
##＆
##＇
##（
##）
##＊
##，
##－
##．
##／
##：
##；
##＜
##？
##＠
##［
##＼
##］
##＾
##＿
##｀
##ｆ
##ｈ
##ｊ
##ｕ
##ｗ
##ｚ
##｛
##｝
##｡
##｢
##｣
##､
##･
##ｯ
##ｰ
##ｲ
##ｸ
##ｼ
##ｽ
##ﾄ
##ﾉ
##ﾌ
##ﾗ
##ﾙ
##ﾝ
##ﾞ
##ﾟ
##￣
##￥
##👍
##🔥
##😂
##😎
